{
  "src_word2id": {
    "<pad>": 0,
    "<s>": 1,
    "</s>": 2,
    "<unk>": 3,
    "ی": 4,
    "▁و": 5,
    "▁در": 6,
    "▁به": 7,
    "▁از": 8,
    "▁با": 9,
    "▁را": 10,
    "▁که": 11,
    "▁این": 12,
    "▁": 13,
    "▁است": 14,
    "های": 15,
    "ه": 16,
    "News": 17,
    "▁برای": 18,
    "ان": 19,
    "▁یک": 20,
    "▁شد": 21,
    "▁ایران": 22,
    "▁تا": 23,
    "▁کشور": 24,
    "h": 25,
    "ها": 26,
    "▁khabar": 27,
    "▁بر": 28,
    "▁O": 29,
    "▁parsinehnews": 30,
    "ا": 31,
    "▁کرونا": 32,
    "م": 33,
    "ات": 34,
    "▁کرد": 35,
    "ri": 36,
    "el": 37,
    "nn": 38,
    "▁Y": 39,
    "jc": 40,
    "Cha": 41,
    "ت": 42,
    "▁سال": 43,
    "Fo": 44,
    "▁Akhbare": 45,
    "▁میشود": 46,
    "▁هم": 47,
    "▁روز": 48,
    "▁آن": 49,
    "▁خود": 50,
    "ین": 51,
    "▁هزار": 52,
    "ش": 53,
    "د": 54,
    "▁تهران": 55,
    "▁واکسن": 56,
    "▁ما": 57,
    "ند": 58,
    "▁م": 59,
    "▁تومان": 60,
    "▁اعلام": 61,
    "▁ماه": 62,
    "ای": 63,
    "ن": 64,
    "▁میلیون": 65,
    "▁آمریکا": 66,
    "▁قیمت": 67,
    "▁دو": 68,
    "▁رئیس": 69,
    "▁امروز": 70,
    "▁انتخابات": 71,
    "▁هر": 72,
    "▁باید": 73,
    "▁قرار": 74,
    "▁دارد": 75,
    "▁؟": 76,
    "▁نفر": 77,
    "▁مردم": 78,
    "▁کرده": 79,
    "▁وزارت": 80,
    "▁دولت": 81,
    "▁اما": 82,
    "▁افزایش": 83,
    "▁کار": 84,
    "▁شود": 85,
    "ر": 86,
    "▁ملی": 87,
    "▁جمهوری": 88,
    "▁خبر": 89,
    "▁شورای": 90,
    "▁یا": 91,
    "▁خواهد": 92,
    "▁جدید": 93,
    "▁صورت": 94,
    "▁درصد": 95,
    "▁ب": 96,
    "▁برگزار": 97,
    "▁اردیبهشت": 98,
    "و": 99,
    "شدهاست": 100,
    "▁هستند": 101,
    "▁سازمان": 102,
    "ک": 103,
    "▁داد": 104,
    "▁کند": 105,
    "▁گذشته": 106,
    "▁نیست": 107,
    "▁او": 108,
    "▁مورد": 109,
    "▁پس": 110,
    "▁نیز": 111,
    "▁دست": 112,
    "▁آنها": 113,
    "▁اگر": 114,
    "▁وزیر": 115,
    "▁کاهش": 116,
    "▁میکند": 117,
    "▁دیگر": 118,
    "بود": 119,
    "▁باشگاه": 120,
    "▁کنند": 121,
    "▁ساعت": 122,
    "که": 123,
    "▁حال": 124,
    "▁اسلامی": 125,
    "شده": 126,
    "▁همه": 127,
    "▁news": 128,
    "▁پیش": 129,
    "▁برخی": 130,
    "▁هفته": 131,
    "▁درباره": 132,
    "▁چند": 133,
    "▁استان": 134,
    "▁من": 135,
    "▁سخنگو": 136,
    "▁شرکت": 137,
    "وجود": 138,
    "▁سه": 139,
    "▁بازار": 140,
    "▁نام": 141,
    "▁مذاکرات": 142,
    "▁انجام": 143,
    "▁yjc": 144,
    "▁میتوان": 145,
    "▁بعد": 146,
    "▁ن": 147,
    "▁شهر": 148,
    "▁شدن": 149,
    "▁2": 150,
    "یم": 151,
    "▁نظر": 152,
    "▁مجلس": 153,
    "▁هیچ": 154,
    "▁بهداشت": 155,
    "▁بیش": 156,
    "ترین": 157,
    "▁همچن": 158,
    "▁رو": 159,
    "▁خارجه": 160,
    "▁مقابل": 161,
    "▁کل": 162,
    "▁دلار": 163,
    "▁برق": 164,
    "▁افراد": 165,
    "▁جوان": 166,
    "س": 167,
    "▁کردند": 168,
    "ب": 169,
    "▁ستاد": 170,
    "▁تیم": 171,
    "▁رژیم": 172,
    "▁سر": 173,
    "ع": 174,
    "▁1400": 175,
    "▁شرایط": 176,
    "▁4": 177,
    "▁تولید": 178,
    "▁استفاده": 179,
    "▁میلیارد": 180,
    "▁3": 181,
    "▁پایان": 182,
    "▁گفت": 183,
    "▁ادامه": 184,
    "▁داشته": 185,
    "▁آب": 186,
    "▁20": 187,
    "▁برجام": 188,
    "▁واکسیناسیون": 189,
    "▁وارد": 190,
    "▁شبکه": 191,
    "▁دلیل": 192,
    "توسط": 193,
    "▁خبرنگاران": 194,
    "▁مدیر": 195,
    "▁باشد": 196,
    "▁حضور": 197,
    "▁ثبت": 198,
    "▁شب": 199,
    "▁بیشتر": 200,
    "▁بانک": 201,
    "▁ا": 202,
    "▁بوده": 203,
    "▁شدند": 204,
    "▁معاون": 205,
    "▁زمان": 206,
    "▁وین": 207,
    "تر": 208,
    "▁غیر": 209,
    "▁ریاست": 210,
    "▁ویروس": 211,
    "ار": 212,
    "▁ت": 213,
    "▁بین": 214,
    "▁داشت": 215,
    "▁گزارش": 216,
    "▁ظریف": 217,
    "ست": 218,
    "▁امنیت": 219,
    "▁روی": 220,
    "▁توافق": 221,
    "▁میکنند": 222,
    "کنون": 223,
    "▁5": 224,
    "s": 225,
    "▁10": 226,
    "▁آینده": 227,
    "▁پرداخت": 228,
    "▁قدس": 229,
    "▁ایرانی": 230,
    "ال": 231,
    "▁دارند": 232,
    "انه": 233,
    "▁برنامه": 234,
    "▁قبل": 235,
    "▁علی": 236,
    "▁حمله": 237,
    "▁رسید": 238,
    "▁فوتبال": 239,
    "ید": 240,
    "▁چه": 241,
    "▁حدود": 242,
    "▁اول": 243,
    "▁موضوع": 244,
    "▁اساس": 245,
    "▁نگهبان": 246,
    "▁تعداد": 247,
    "▁انقلاب": 248,
    "▁ندارد": 249,
    "▁تمام": 250,
    "▁گفته": 251,
    "▁رمضان": 252,
    "▁مرکزی": 253,
    "ز": 254,
    "▁روحانی": 255,
    "▁شدید": 256,
    "▁گرفته": 257,
    "▁راه": 258,
    "▁بار": 259,
    "▁نسبت": 260,
    "▁آزاد": 261,
    "▁25": 262,
    "▁19": 263,
    "سازی": 264,
    "▁آغاز": 265,
    "▁کامل": 266,
    "▁عنوان": 267,
    "▁ارز": 268,
    "▁احتمال": 269,
    "ح": 270,
    "گیری": 271,
    "▁میدهد": 272,
    "▁دریافت": 273,
    "▁شنبه": 274,
    "▁واحد": 275,
    "▁خرید": 276,
    "ل": 277,
    "▁بررسی": 278,
    "▁عراق": 279,
    "▁داده": 280,
    "▁پارسینه": 281,
    "▁زیر": 282,
    "▁6": 283,
    "▁ورود": 284,
    "شدهو": 285,
    "▁بسیار": 286,
    "▁وضعیت": 287,
    "▁سوی": 288,
    "▁فروش": 289,
    "▁توجه": 290,
    "▁محمد": 291,
    "▁مرکز": 292,
    "نی": 293,
    "▁باد": 294,
    "▁پلیس": 295,
    "▁فرد": 296,
    "▁بزرگ": 297,
    "▁com": 298,
    "▁ال": 299,
    "▁جهان": 300,
    "▁امور": 301,
    "▁روند": 302,
    "▁15": 303,
    "▁شمال": 304,
    "▁قانون": 305,
    "▁اسرائیل": 306,
    "▁هستهای": 307,
    "▁بدون": 308,
    "▁آمریکایی": 309,
    "▁جهانی": 310,
    "▁30": 311,
    "▁هنوز": 312,
    "▁منطقه": 313,
    "▁کنید": 314,
    "▁طرح": 315,
    "▁عربستان": 316,
    "▁نشان": 317,
    "ق": 318,
    "▁نه": 319,
    "▁نیروهای": 320,
    "▁قرمز": 321,
    "▁8": 322,
    "▁آخر": 323,
    "▁رهبر": 324,
    "▁کمیسیون": 325,
    "یت": 326,
    "▁سکه": 327,
    "▁12": 328,
    "▁جنوبی": 329,
    "▁خودرو": 330,
    "▁اقدام": 331,
    "▁آ": 332,
    "▁9": 333,
    "▁میشوند": 334,
    "▁کنیم": 335,
    "▁می": 336,
    "▁علیه": 337,
    "▁نرخ": 338,
    "▁گروه": 339,
    "▁استانهای": 340,
    "▁محل": 341,
    "▁زمین": 342,
    "▁بی": 343,
    "▁مصرف": 344,
    "▁نشست": 345,
    "▁امام": 346,
    "▁صهیونیستی": 347,
    "▁رییس": 348,
    "8": 349,
    "▁اخیر": 350,
    "▁گرفت": 351,
    "▁باز": 352,
    "از": 353,
    "▁استقلال": 354,
    "▁سیاسی": 355,
    "▁عمومی": 356,
    "▁پیشبینی": 357,
    "▁پیدا": 358,
    "▁اقتصادی": 359,
    "▁21": 360,
    "▁ع": 361,
    "▁http": 362,
    "▁خرداد": 363,
    "▁اجتماعی": 364,
    "▁گفتوگو": 365,
    "▁هندی": 366,
    "▁مناطق": 367,
    "▁برابر": 368,
    "▁دبیر": 369,
    "▁تزریق": 370,
    "ام": 371,
    "▁میزان": 372,
    "▁مشخص": 373,
    "▁لیگ": 374,
    "▁حمایت": 375,
    "▁بورس": 376,
    "گی": 377,
    "▁خارجی": 378,
    "▁1": 379,
    "▁روسیه": 380,
    "ور": 381,
    "▁آمار": 382,
    "یه": 383,
    "▁کرونای": 384,
    "▁ویژه": 385,
    "کل": 386,
    "▁پرسپولیس": 387,
    "▁پرونده": 388,
    "▁آقای": 389,
    "▁مقام": 390,
    "▁سفر": 391,
    "▁ح": 392,
    "▁سامانه": 393,
    "▁پی": 394,
    "▁بیمارستان": 395,
    "▁س": 396,
    "▁موشک": 397,
    "▁عضو": 398,
    "▁همراه": 399,
    "▁هند": 400,
    "شان": 401,
    "▁حاضر": 402,
    "▁آتش": 403,
    "▁البرز": 404,
    "▁بخش": 405,
    "▁تن": 406,
    "▁بازگشت": 407,
    "▁بازی": 408,
    "▁گل": 409,
    "▁طی": 410,
    "▁داریم": 411,
    "▁خصوص": 412,
    "▁میان": 413,
    "▁طبق": 414,
    "▁کردن": 415,
    "▁فقط": 416,
    "▁چین": 417,
    "▁18": 418,
    "▁میکنیم": 419,
    "▁کردهاند": 420,
    "▁خارج": 421,
    "▁دوم": 422,
    "▁دانشگاه": 423,
    "▁فطر": 424,
    "▁ممنوع": 425,
    "▁هستیم": 426,
    "▁13": 427,
    "▁تحریمها": 428,
    "ف": 429,
    "▁همین": 430,
    "▁آموزش": 431,
    "▁7": 432,
    "▁باشند": 433,
    "▁ملت": 434,
    "▁بیماری": 435,
    "▁خبری": 436,
    "e": 437,
    "▁منابع": 438,
    "1": 439,
    "▁قدر": 440,
    "▁تلاش": 441,
    "▁پول": 442,
    "▁رعایت": 443,
    "▁رگبار": 444,
    "▁دنبال": 445,
    "▁تامین": 446,
    "▁پزشکی": 447,
    "▁دیدار": 448,
    "▁شرق": 449,
    "▁اطلاعات": 450,
    "وزش": 451,
    "▁تعطیل": 452,
    "مان": 453,
    "▁مرگ": 454,
    "▁بارش": 455,
    "گاه": 456,
    "ج": 457,
    "▁سیاست": 458,
    "▁تغییر": 459,
    "▁اخبار": 460,
    "▁مصوبه": 461,
    "▁حتی": 462,
    "▁خبرفوری": 463,
    "▁عید": 464,
    "▁لازم": 465,
    "▁جلسه": 466,
    "ون": 467,
    "▁خراسان": 468,
    "▁افغانستان": 469,
    "▁شدهاند": 470,
    "وع": 471,
    "▁جان": 472,
    "▁تصاویر": 473,
    "▁دعا": 474,
    "▁رشد": 475,
    "▁فرمانده": 476,
    "▁مهم": 477,
    "2": 478,
    "▁عملیات": 479,
    "▁آزمون": 480,
    "▁نظام": 481,
    "▁فلسطین": 482,
    "▁چرا": 483,
    "▁شرقی": 484,
    "▁اثر": 485,
    "▁شهرهای": 486,
    "خ": 487,
    "▁دنیا": 488,
    "▁تایید": 489,
    "▁تصمیم": 490,
    "▁هدف": 491,
    "▁مرحله": 492,
    "▁تردد": 493,
    "▁11": 494,
    "▁شما": 495,
    "▁حادثه": 496,
    "▁شهید": 497,
    "▁تنها": 498,
    "▁مراسم": 499,
    "9": 500,
    "▁هیات": 501,
    "▁تاریخ": 502,
    "▁ساله": 503,
    "▁رئیسی": 504,
    "▁بالا": 505,
    "▁آذربایجان": 506,
    "▁ایجاد": 507,
    "▁گفتگو": 508,
    "▁24": 509,
    "چه": 510,
    "پ": 511,
    "▁نیاز": 512,
    "▁فارس": 513,
    "▁مجازی": 514,
    "▁کمک": 515,
    "هزار": 516,
    "▁پا": 517,
    "▁ف": 518,
    "▁اینستاگرام": 519,
    "▁رعد": 520,
    "▁چهار": 521,
    "ط": 522,
    "▁ولی": 523,
    "▁غرب": 524,
    "▁جلو": 525,
    "▁شوند": 526,
    "▁فدراسیون": 527,
    "5": 528,
    "▁WV": 529,
    "▁کم": 530,
    "▁کرمان": 531,
    "▁دستور": 532,
    "▁ک": 533,
    "▁سوم": 534,
    "وم": 535,
    "▁هشدار": 536,
    "▁فردا": 537,
    "▁سردار": 538,
    "▁اصلی": 539,
    "▁جریان": 540,
    "▁نتیجه": 541,
    "▁دور": 542,
    "کننده": 543,
    "▁سلیمانی": 544,
    "▁واکنش": 545,
    "▁پر": 546,
    "▁فضای": 547,
    "▁منتشر": 548,
    "▁تو": 549,
    "▁اولین": 550,
    "اد": 551,
    "گر": 552,
    "▁انفجار": 553,
    "▁مختلف": 554,
    "▁کسانی": 555,
    "▁کووید": 556,
    "دار": 557,
    "▁کنار": 558,
    "▁داخل": 559,
    "▁بایدن": 560,
    "▁شهرستان": 561,
    "▁فعالیت": 562,
    "▁ممکن": 563,
    "4": 564,
    "▁سپاه": 565,
    "▁قم": 566,
    "▁کرونایی": 567,
    "▁چهارم": 568,
    "▁مدت": 569,
    "▁زن": 570,
    "▁نزدیک": 571,
    "▁انتشار": 572,
    "▁پایگاه": 573,
    "▁نماینده": 574,
    "▁بالای": 575,
    "▁باران": 576,
    "▁امکان": 577,
    "▁عکس": 578,
    "▁رخ": 579,
    "▁جمله": 580,
    "▁مدیریت": 581,
    "▁آسیا": 582,
    "▁بینالمللی": 583,
    "▁پیشنهاد": 584,
    "▁بسته": 585,
    "▁اروپا": 586,
    "▁یافته": 587,
    "▁حساب": 588,
    "▁سایت": 589,
    "▁معدن": 590,
    "▁14": 591,
    "▁40": 592,
    "▁دستگاه": 593,
    "▁50": 594,
    "▁لغو": 595,
    "▁طریق": 596,
    "▁انتقال": 597,
    "▁مربوط": 598,
    "▁اتحاد": 599,
    "▁زندگی": 600,
    "▁امسال": 601,
    "▁صبح": 602,
    "▁زنده": 603,
    "▁کشته": 604,
    "▁جمهور": 605,
    "▁کسی": 606,
    "▁برخورد": 607,
    "▁ق": 608,
    "▁اعتراض": 609,
    "▁خوزستان": 610,
    "▁100": 611,
    "▁WW": 612,
    "▁چ": 613,
    "▁خط": 614,
    "▁شناسایی": 615,
    "یها": 616,
    "▁بیمار": 617,
    "▁بیماران": 618,
    "▁شدهبود": 619,
    "▁ابر": 620,
    "▁مسکن": 621,
    "▁خواهدبود": 622,
    "▁ش": 623,
    "▁میرسد": 624,
    "▁بهطور": 625,
    "▁ارزش": 626,
    "▁ارائه": 627,
    "▁سقوط": 628,
    "عدم": 629,
    "▁تست": 630,
    "▁روزهای": 631,
    "▁طلا": 632,
    "▁مشترک": 633,
    "▁مواد": 634,
    "بودند": 635,
    "▁واردات": 636,
    "▁سمت": 637,
    "▁داوطلبان": 638,
    "▁جای": 639,
    "▁اجرای": 640,
    "▁کشورهای": 641,
    "▁فایل": 642,
    "▁رسمی": 643,
    "▁مقاومت": 644,
    "▁باعث": 645,
    "▁سید": 646,
    "▁همان": 647,
    "▁صوتی": 648,
    "▁جو": 649,
    "▁پاسخ": 650,
    "▁یافت": 651,
    "▁دچار": 652,
    "▁صلاحیت": 653,
    "▁امتحانات": 654,
    "▁وق": 655,
    "▁نوشت": 656,
    "▁ترکیه": 657,
    "▁تحریمهای": 658,
    "3": 659,
    "▁دولتی": 660,
    "▁تشکیل": 661,
    "▁ماسک": 662,
    "▁ارسال": 663,
    "▁ثبتنام": 664,
    "▁انتخاب": 665,
    "▁ابتلا": 666,
    "▁مازندران": 667,
    "▁نارنجی": 668,
    "▁فعال": 669,
    "▁نیروی": 670,
    "▁حق": 671,
    "▁جمعیت": 672,
    "اب": 673,
    "▁17": 674,
    "▁قابل": 675,
    "▁خانه": 676,
    "غ": 677,
    "▁مشکل": 678,
    "▁مهر": 679,
    "▁جنوب": 680,
    "▁اجازه": 681,
    "▁اصفهان": 682,
    "▁هزینه": 683,
    "▁خوب": 684,
    "▁علت": 685,
    "▁جمعه": 686,
    "▁هوای": 687,
    "▁دارو": 688,
    "▁اعمال": 689,
    "▁سطح": 690,
    "▁درصدی": 691,
    "▁دادند": 692,
    "▁99": 693,
    "▁ه": 694,
    "▁درمان": 695,
    "▁کسب": 696,
    "▁ج": 697,
    "▁ir": 698,
    "▁رسیده": 699,
    "▁حقوق": 700,
    "▁جهش": 701,
    "▁بودجه": 702,
    "▁اقدامات": 703,
    "▁حداقل": 704,
    "▁بازداشت": 705,
    "▁سهام": 706,
    "▁کمتر": 707,
    "ته": 708,
    "▁80": 709,
    "▁رسانهها": 710,
    "▁رفع": 711,
    "▁تعیین": 712,
    "▁احیا": 713,
    "▁غربی": 714,
    "▁مثبت": 715,
    "شدهدر": 716,
    "▁16": 717,
    "بر": 718,
    "▁روزنامه": 719,
    "▁22": 720,
    "▁تر": 721,
    "▁اینجا": 722,
    "▁مسیر": 723,
    "▁خواست": 724,
    "▁نهایی": 725,
    "▁داخلی": 726,
    "▁حالی": 727,
    "▁ایسنا": 728,
    "▁گمرک": 729,
    "اند": 730,
    "▁بهداشتی": 731,
    "a": 732,
    "▁اتفاق": 733,
    "▁ر": 734,
    "▁اداره": 735,
    "▁بیست": 736,
    "▁نوع": 737,
    "▁ظهر": 738,
    "▁مرغ": 739,
    "▁فوت": 740,
    "▁تح": 741,
    "▁رهبری": 742,
    "▁ارتباط": 743,
    "▁قوه": 744,
    "▁کارگر": 745,
    "sta": 746,
    "▁اعضا": 747,
    "▁مبارزه": 748,
    "▁ساخت": 749,
    "▁60": 750,
    "▁آمده": 751,
    "▁حضوری": 752,
    "▁تحریم": 753,
    "تا": 754,
    "▁مبارک": 755,
    "▁جهت": 756,
    "▁مبتلا": 757,
    "▁عمل": 758,
    "یک": 759,
    "▁واقع": 760,
    "▁تمامی": 761,
    "▁مالی": 762,
    "▁ابلاغ": 763,
    "gram": 764,
    "▁مبلغ": 765,
    "▁خواهند": 766,
    "▁پرواز": 767,
    "▁سعید": 768,
    "7": 769,
    "▁مشکلات": 770,
    "اش": 771,
    "▁امیر": 772,
    "▁شهرداری": 773,
    "▁دریای": 774,
    "اساس": 775,
    "▁روابط": 776,
    "▁پخش": 777,
    "▁رد": 778,
    "▁سلامت": 779,
    "روز": 780,
    "کار": 781,
    "یل": 782,
    "▁کارگران": 783,
    "▁بودن": 784,
    "▁تصویب": 785,
    "▁سفارت": 786,
    "▁شمالی": 787,
    "▁چک": 788,
    "▁میدان": 789,
    "▁حوزه": 790,
    "▁تاکید": 791,
    "▁سیستان": 792,
    "ده": 793,
    "▁افرادی": 794,
    "▁شاخص": 795,
    "▁in": 796,
    "▁نظامی": 797,
    "▁صادر": 798,
    "▁آزادی": 799,
    "▁سابق": 800,
    "▁عامل": 801,
    "▁تمدید": 802,
    "▁دشمن": 803,
    "▁مجوز": 804,
    "▁سعودی": 805,
    "لق": 806,
    "▁جدی": 807,
    "▁فیلم": 808,
    "گان": 809,
    "▁مذاکره": 810,
    "▁نو": 811,
    "▁نمیتوان": 812,
    "▁یورو": 813,
    "▁سوریه": 814,
    "ض": 815,
    "▁نخواهد": 816,
    "▁دانش": 817,
    "▁دفتر": 818,
    "▁ازدواج": 819,
    "▁بلوچستان": 820,
    "▁تشخیص": 821,
    "▁کنترل": 822,
    "▁کوتاه": 823,
    "▁یزد": 824,
    "▁خیلی": 825,
    "▁دفاع": 826,
    "▁سنگین": 827,
    "کنندگان": 828,
    "▁سود": 829,
    "▁دوره": 830,
    "▁طرف": 831,
    "▁ترامپ": 832,
    "▁عالی": 833,
    "▁نمیشود": 834,
    "باید": 835,
    "▁قربانی": 836,
    "▁حسن": 837,
    "▁مرد": 838,
    "▁دوز": 839,
    "▁خ": 840,
    "زاده": 841,
    "▁قرنطینه": 842,
    "▁کارخانه": 843,
    "ول": 844,
    "▁کانال": 845,
    "▁مراجعه": 846,
    "▁دی": 847,
    "به": 848,
    "▁هفت": 849,
    "ود": 850,
    "▁زمانی": 851,
    "▁اردبیل": 852,
    "▁ببینید": 853,
    "▁بستری": 854,
    "▁مقامات": 855,
    "▁مصوب": 856,
    "▁شاهد": 857,
    "▁آفریقایی": 858,
    "▁زیادی": 859,
    "▁نا": 860,
    "▁جنگ": 861,
    "▁آژانس": 862,
    "▁خبرگزاری": 863,
    "▁قزوین": 864,
    "▁پایتخت": 865,
    "▁تجمع": 866,
    "▁فلسطینی": 867,
    "▁قهرمانان": 868,
    "▁سن": 869,
    "▁اساسی": 870,
    "▁پایه": 871,
    "▁ایرنا": 872,
    "▁ارتش": 873,
    "▁متهم": 874,
    "▁فاز": 875,
    "▁آماده": 876,
    "در": 877,
    "▁تومانی": 878,
    "بندی": 879,
    "▁لحظه": 880,
    "▁دوشنبه": 881,
    "▁میکنم": 882,
    "6": 883,
    "گ": 884,
    "▁شهروندان": 885,
    "فت": 886,
    "عامل": 887,
    "▁ترافیک": 888,
    "▁بوشهر": 889,
    "▁ماجرا": 890,
    "وی": 891,
    "▁ممنوعیت": 892,
    "▁مطرح": 893,
    "▁قانونی": 894,
    "n": 895,
    "▁قدرت": 896,
    "▁500": 897,
    "▁وقتی": 898,
    "بی": 899,
    "▁مثل": 900,
    "▁شهادت": 901,
    "▁هیئت": 902,
    "▁کارشناسی": 903,
    "▁کدام": 904,
    "▁خطر": 905,
    "▁دقیق": 906,
    "▁دقیقه": 907,
    "▁اقتصاد": 908,
    "▁خواهیم": 909,
    "▁دهد": 910,
    "▁آتشسوزی": 911,
    "▁نمایندگان": 912,
    "▁ارشد": 913,
    "▁برنج": 914,
    "▁بیان": 915,
    "▁سهمیه": 916,
    "▁کد": 917,
    "▁35": 918,
    "▁شکست": 919,
    "▁درخواست": 920,
    "▁ل": 921,
    "▁غذا": 922,
    "▁نداشته": 923,
    "▁تاثیر": 924,
    "▁معاملات": 925,
    "▁چنین": 926,
    "▁هنگام": 927,
    "▁متاسف": 928,
    "▁مالیات": 929,
    "i": 930,
    "▁پیام": 931,
    "▁خدا": 932,
    "▁قضایی": 933,
    "▁خودروهای": 934,
    "0": 935,
    "▁چینی": 936,
    "▁موارد": 937,
    "▁تصویر": 938,
    "▁مراکز": 939,
    "▁مشاور": 940,
    "▁میگیرد": 941,
    "▁قصد": 942,
    "▁خانواده": 943,
    "▁شیو": 944,
    "▁نظارت": 945,
    "▁یکشنبه": 946,
    "▁جریمه": 947,
    "▁معرفی": 948,
    "▁اختیار": 949,
    "▁عجیب": 950,
    "رو": 951,
    "▁جاری": 952,
    "▁تماس": 953,
    "▁وام": 954,
    "▁باغ": 955,
    "▁بیمه": 956,
    "▁شماره": 957,
    "▁مبتلای": 958,
    "▁t": 959,
    "▁www": 960,
    "▁تسهیل": 961,
    "▁دارای": 962,
    "▁علوم": 963,
    "▁جامعه": 964,
    "▁تورم": 965,
    "▁الب": 966,
    "▁حالا": 967,
    "▁پل": 968,
    "▁کشف": 969,
    "▁مادر": 970,
    "▁صد": 971,
    "▁نقل": 972,
    "▁خروج": 973,
    "▁بحث": 974,
    "▁عراقچی": 975,
    "▁موج": 976,
    "▁بنابر": 977,
    "▁ریزش": 978,
    "▁یع": 979,
    "نشدهاست": 980,
    "▁الان": 981,
    "▁صدای": 982,
    "▁27": 983,
    "▁مسئولان": 984,
    "▁داشتند": 985,
    "▁موجود": 986,
    "▁فرا": 987,
    "▁نقاط": 988,
    "▁سوخت": 989,
    "▁بازیکن": 990,
    "▁ده": 991,
    "▁آسمان": 992,
    "▁جا": 993,
    "چ": 994,
    "▁200": 995,
    "▁میگویند": 996,
    "▁میشه": 997,
    "▁مقرر": 998,
    "▁کمیته": 999,
    "▁زمینه": 1000,
    "▁26": 1001,
    "▁ساختمان": 1002,
    "▁چون": 1003,
    "▁متر": 1004,
    "▁موفق": 1005,
    "▁کیلو": 1006,
    "▁حل": 1007,
    "نان": 1008,
    "▁مجدد": 1009,
    "▁پرورش": 1010,
    "▁میدهند": 1011,
    "▁فکر": 1012,
    "p": 1013,
    "▁زیاد": 1014,
    "▁قاسم": 1015,
    "▁خاک": 1016,
    "▁رسیدن": 1017,
    "▁سیل": 1018,
    "▁نیمه": 1019,
    "نگ": 1020,
    "▁کشتی": 1021,
    "▁شخصی": 1022,
    "▁کن": 1023,
    "▁چگون": 1024,
    "▁انتظار": 1025,
    "▁پیک": 1026,
    "▁لبنان": 1027,
    "▁گسترده": 1028,
    "▁شکل": 1029,
    "▁جز": 1030,
    "▁دهند": 1031,
    "▁الله": 1032,
    "▁صهیونیستها": 1033,
    "▁نان": 1034,
    "▁بدن": 1035,
    "▁حزب": 1036,
    "▁سایر": 1037,
    "▁مهدی": 1038,
    "▁نامزد": 1039,
    "▁بانکها": 1040,
    "▁کره": 1041,
    "▁ادعای": 1042,
    "مانند": 1043,
    "کو": 1044,
    "▁پنج": 1045,
    "▁آزمایش": 1046,
    "▁آسیب": 1047,
    "▁فولاد": 1048,
    "▁منتقل": 1049,
    "▁قالیباف": 1050,
    "▁متحد": 1051,
    "▁حقوقی": 1052,
    "19": 1053,
    "▁انگلیس": 1054,
    "▁اجرا": 1055,
    "کن": 1056,
    "▁ناش": 1057,
    "جه": 1058,
    "▁کی": 1059,
    "▁مواجه": 1060,
    "▁گورخر": 1061,
    "▁هست": 1062,
    "▁علاوه": 1063,
    "▁میگوید": 1064,
    "▁عدالت": 1065,
    "▁خزر": 1066,
    "▁سفید": 1067,
    "▁شکر": 1068,
    "▁عباس": 1069,
    "گونه": 1070,
    "▁جام": 1071,
    "▁مدرسه": 1072,
    "ایی": 1073,
    "▁23": 1074,
    "▁وقت": 1075,
    "▁زنان": 1076,
    "▁ندارند": 1077,
    "▁منفی": 1078,
    "▁حداکثر": 1079,
    "▁سوال": 1080,
    "▁کردیم": 1081,
    "▁70": 1082,
    "t": 1083,
    "d": 1084,
    "تون": 1085,
    "ژ": 1086,
    "▁بحران": 1087,
    "▁حرکت": 1088,
    "▁سخنرانی": 1089,
    "▁رنگ": 1090,
    "▁خدمات": 1091,
    "▁مسئولیت": 1092,
    "▁فروردین": 1093,
    "▁دانشجویان": 1094,
    "▁زخمی": 1095,
    "▁تلفن": 1096,
    "▁اشغالی": 1097,
    "▁حد": 1098,
    "▁نگران": 1099,
    "▁باشیم": 1100,
    "▁تحقیقات": 1101,
    "▁نخستین": 1102,
    "▁سرمایه": 1103,
    "▁محور": 1104,
    "▁اجرایی": 1105,
    "ماه": 1106,
    "▁دادن": 1107,
    "ری": 1108,
    "▁بود": 1109,
    "▁تبدیل": 1110,
    "▁محیط": 1111,
    "▁ساعات": 1112,
    "▁غزه": 1113,
    "▁شلیک": 1114,
    "▁نجات": 1115,
    "▁عدد": 1116,
    "گذاری": 1117,
    "▁خاطر": 1118,
    "▁فرصت": 1119,
    "▁بد": 1120,
    "o": 1121,
    "▁ره": 1122,
    "این": 1123,
    "داری": 1124,
    "▁نیم": 1125,
    "▁پ": 1126,
    "▁مسافر": 1127,
    "foo": 1128,
    "▁آیتالله": 1129,
    "▁انتظامی": 1130,
    "▁me": 1131,
    "▁ریال": 1132,
    "▁فرانسه": 1133,
    "▁برتر": 1134,
    "▁خودش": 1135,
    "▁دل": 1136,
    "▁کارک": 1137,
    "▁فاصله": 1138,
    "ص": 1139,
    "r": 1140,
    "l": 1141,
    "▁گرم": 1142,
    "▁تحویل": 1143,
    "▁رابطه": 1144,
    "▁حکم": 1145,
    "▁فرودگاه": 1146,
    "▁کرج": 1147,
    "▁روزه": 1148,
    "▁همکاری": 1149,
    "▁دادگاه": 1150,
    "▁ترین": 1151,
    "▁شبانه": 1152,
    "▁مسئول": 1153,
    "▁ملک": 1154,
    "▁آیا": 1155,
    "▁رفت": 1156,
    "▁پیگیری": 1157,
    "▁خون": 1158,
    "▁قطعی": 1159,
    "▁مدیران": 1160,
    "▁مسابق": 1161,
    "▁آبی": 1162,
    "▁توزیع": 1163,
    "▁جوانان": 1164,
    "بند": 1165,
    "عظم": 1166,
    "▁روزانه": 1167,
    "▁اورژانس": 1168,
    "▁مسائل": 1169,
    "▁مصاحبه": 1170,
    "▁قبول": 1171,
    "▁مبنی": 1172,
    "▁دیگری": 1173,
    "▁آگاه": 1174,
    "درصد": 1175,
    "▁درجه": 1176,
    "▁شهرک": 1177,
    "▁سنگ": 1178,
    "▁هوا": 1179,
    "▁بخشی": 1180,
    "▁تلگرام": 1181,
    "▁منظور": 1182,
    "▁نتایج": 1183,
    "▁دکتر": 1184,
    "▁رقم": 1185,
    "▁همزمان": 1186,
    "▁شامل": 1187,
    "▁دختر": 1188,
    "▁دیده": 1189,
    "▁یمن": 1190,
    "▁سراسر": 1191,
    "بار": 1192,
    "▁کلی": 1193,
    "▁طول": 1194,
    "▁ارتفاع": 1195,
    "▁حملونقل": 1196,
    "▁عبور": 1197,
    "▁جزئیات": 1198,
    "▁کابل": 1199,
    "▁عادی": 1200,
    "▁مسکو": 1201,
    "▁زاده": 1202,
    "▁مانده": 1203,
    "▁عصر": 1204,
    "ایل": 1205,
    "بع": 1206,
    "▁محدودیت": 1207,
    "میلیون": 1208,
    "▁پست": 1209,
    "▁مجموع": 1210,
    "قدر": 1211,
    "▁زد": 1212,
    "▁شهردار": 1213,
    "▁محدودیتهای": 1214,
    "▁ائتلاف": 1215,
    "▁انرژی": 1216,
    "▁مشارکت": 1217,
    "فر": 1218,
    "▁معامله": 1219,
    "▁مع": 1220,
    "▁زدن": 1221,
    "▁شروع": 1222,
    "ar": 1223,
    "کشی": 1224,
    "توجه": 1225,
    "▁بلک": 1226,
    "▁کودک": 1227,
    "▁مسلح": 1228,
    "▁گاه": 1229,
    "▁چیزی": 1230,
    "▁مدعی": 1231,
    "▁رئیسجمهور": 1232,
    "▁پنجشنبه": 1233,
    "▁خامنهای": 1234,
    "▁محسن": 1235,
    "▁پشت": 1236,
    "▁المپیک": 1237,
    "▁آموزان": 1238,
    "کور": 1239,
    "▁مستقیم": 1240,
    "▁اروپایی": 1241,
    "▁فرو": 1242,
    "▁مناسب": 1243,
    "▁صنعت": 1244,
    "▁حسین": 1245,
    "▁درست": 1246,
    "▁مسجد": 1247,
    "▁مشمول": 1248,
    "▁بخوانید": 1249,
    "▁رکورد": 1250,
    "▁سرطان": 1251,
    "▁امشب": 1252,
    "▁سمنان": 1253,
    "▁کنکور": 1254,
    "▁راکت": 1255,
    "▁موجب": 1256,
    "▁فنی": 1257,
    "▁سو": 1258,
    "▁فضایی": 1259,
    "الله": 1260,
    "▁بانکی": 1261,
    "نا": 1262,
    "▁زندان": 1263,
    "اری": 1264,
    "▁اولیه": 1265,
    "▁جمع": 1266,
    "وان": 1267,
    "▁اعتبار": 1268,
    "▁تکذیب": 1269,
    "▁هواشناسی": 1270,
    "▁هرمزگان": 1271,
    "▁شمار": 1272,
    "▁منتظر": 1273,
    "▁300": 1274,
    "A": 1275,
    "وش": 1276,
    "▁افت": 1277,
    "سال": 1278,
    "ث": 1279,
    "▁هماهنگی": 1280,
    "▁خاص": 1281,
    "v": 1282,
    "▁گروههای": 1283,
    "▁سخت": 1284,
    "▁نقش": 1285,
    "▁WU": 1286,
    "▁اختصاص": 1287,
    "▁ترتیب": 1288,
    "▁زندانی": 1289,
    "▁اتمی": 1290,
    "▁ایشان": 1291,
    "▁دسترس": 1292,
    "▁محصولات": 1293,
    "یس": 1294,
    "▁بن": 1295,
    "▁75": 1296,
    "خصوص": 1297,
    "▁مناسبت": 1298,
    "▁رقابت": 1299,
    "▁کو": 1300,
    "▁تجربه": 1301,
    "▁حذف": 1302,
    "▁نخست": 1303,
    "▁رضوی": 1304,
    "▁سلاح": 1305,
    "▁مشاغل": 1306,
    "▁تیراندازی": 1307,
    "▁تهدید": 1308,
    "▁بتوان": 1309,
    "▁استخراج": 1310,
    "▁خالی": 1311,
    "▁فشار": 1312,
    "▁میرود": 1313,
    "▁اضافه": 1314,
    "▁زنجان": 1315,
    "▁درآمد": 1316,
    "▁همسر": 1317,
    "▁راستا": 1318,
    "▁تعطیلی": 1319,
    "یابی": 1320,
    "▁گ": 1321,
    "▁صدا": 1322,
    "▁بهترین": 1323,
    "▁بازیگر": 1324,
    "▁تازه": 1325,
    "▁دریا": 1326,
    "▁دامنهها": 1327,
    "▁پایین": 1328,
    "▁کارشناس": 1329,
    "▁نظامیان": 1330,
    "▁نمی": 1331,
    "▁کاندیدای": 1332,
    "▁چشم": 1333,
    "▁متع": 1334,
    "نامه": 1335,
    "▁کلیه": 1336,
    "▁دما": 1337,
    "▁پروتکلها": 1338,
    "▁عملکرد": 1339,
    "▁محموله": 1340,
    "▁نداریم": 1341,
    "▁سرقت": 1342,
    "▁ایستگاه": 1343,
    "▁اشاره": 1344,
    "▁واکسینه": 1345,
    "▁دوباره": 1346,
    "▁بیرون": 1347,
    "▁زرد": 1348,
    "▁خانم": 1349,
    "▁ضرب": 1350,
    "▁اصلاحطلبان": 1351,
    "▁جدا": 1352,
    "gh": 1353,
    "▁خصوصی": 1354,
    "رس": 1355,
    "▁ساز": 1356,
    "▁ترور": 1357,
    "▁درگذشت": 1358,
    "▁صعود": 1359,
    "▁موقت": 1360,
    "▁نیستند": 1361,
    "▁محکوم": 1362,
    "▁42": 1363,
    "▁سی": 1364,
    "▁ریاستجمهوری": 1365,
    "▁هاشمی": 1366,
    "▁بعضی": 1367,
    "▁کیلوگرم": 1368,
    "▁ماشین": 1369,
    "▁لیست": 1370,
    "▁پدر": 1371,
    "▁ورزشگاه": 1372,
    "▁پای": 1373,
    "▁سرود": 1374,
    "▁تیر": 1375,
    "▁بهره": 1376,
    "▁بالاتر": 1377,
    "ئ": 1378,
    "▁بیانیه": 1379,
    "▁نامه": 1380,
    "m": 1381,
    "▁دستگیری": 1382,
    "▁درگیری": 1383,
    "▁ابتدای": 1384,
    "▁گران": 1385,
    "▁میر": 1386,
    "▁قرارداد": 1387,
    "▁خبرنگار": 1388,
    "ساز": 1389,
    "▁سپاهان": 1390,
    "▁صادق": 1391,
    "▁دستگیر": 1392,
    "▁عمد": 1393,
    "▁بازگشایی": 1394,
    "▁صنایع": 1395,
    "▁چهارشنبه": 1396,
    "▁جسد": 1397,
    "▁تعوی": 1398,
    "▁متوقف": 1399,
    "▁حملات": 1400,
    "▁کشورها": 1401,
    "▁سیاه": 1402,
    "▁مت": 1403,
    "▁زندانیان": 1404,
    "▁دومین": 1405,
    "▁میکرد": 1406,
    "▁کشورمان": 1407,
    "ذ": 1408,
    "ائ": 1409,
    "ستان": 1410,
    "▁انگلیسی": 1411,
    "▁جاده": 1412,
    "▁آقا": 1413,
    "▁انجمن": 1414,
    "▁مسدود": 1415,
    "▁واشنگتن": 1416,
    "▁حامل": 1417,
    "▁پرتاب": 1418,
    "▁زبان": 1419,
    "▁ایام": 1420,
    "▁کاربران": 1421,
    "▁شرکتهای": 1422,
    "▁کردستان": 1423,
    "▁ار": 1424,
    "▁رسانه": 1425,
    "▁گو": 1426,
    "▁ای": 1427,
    "y": 1428,
    "صورت": 1429,
    "▁آمد": 1430,
    "▁ترک": 1431,
    "▁ص": 1432,
    "▁کردهبود": 1433,
    "▁فرزند": 1434,
    "▁تیمهای": 1435,
    "▁مجاز": 1436,
    "▁اکثر": 1437,
    "▁توسعه": 1438,
    "▁دیجیتال": 1439,
    "▁قرآن": 1440,
    "▁مسئله": 1441,
    "▁رتبه": 1442,
    "▁گندم": 1443,
    "▁واریز": 1444,
    "▁فوق": 1445,
    "▁کاخ": 1446,
    "▁چیست": 1447,
    "▁گر": 1448,
    "▁حجم": 1449,
    "▁امر": 1450,
    "▁رسیدگی": 1451,
    "▁اظهارات": 1452,
    "▁طراحی": 1453,
    "▁مرز": 1454,
    "▁رضا": 1455,
    "▁منع": 1456,
    "▁بخشهای": 1457,
    "▁r": 1458,
    "▁میشد": 1459,
    "▁تروریستی": 1460,
    "شاید": 1461,
    "گز": 1462,
    "▁توییت": 1463,
    "طور": 1464,
    "▁سوئ": 1465,
    "▁نقطه": 1466,
    "▁قسمت": 1467,
    "▁سوئیس": 1468,
    "▁کاری": 1469,
    "تن": 1470,
    "▁استانها": 1471,
    "▁ماده": 1472,
    "▁90": 1473,
    "▁متوسط": 1474,
    "▁دام": 1475,
    "▁مخالف": 1476,
    "حفظ": 1477,
    "بت": 1478,
    "▁بغداد": 1479,
    "▁سهشنبه": 1480,
    "▁کیلومتر": 1481,
    "▁نشود": 1482,
    "▁سریال": 1483,
    "▁عوامل": 1484,
    "▁منجر": 1485,
    "▁توانست": 1486,
    "▁عرضه": 1487,
    "▁معلمان": 1488,
    "▁کودکان": 1489,
    "▁احتمالا": 1490,
    "C": 1491,
    "▁فر": 1492,
    "ران": 1493,
    "▁تهیه": 1494,
    "▁اتهام": 1495,
    "▁صدو": 1496,
    "▁قاچاق": 1497,
    "▁تگرگ": 1498,
    "▁صندوق": 1499,
    "▁ضمن": 1500,
    "▁خسارت": 1501,
    "▁روایت": 1502,
    "▁فصل": 1503,
    "▁کوچک": 1504,
    "▁گیلان": 1505,
    "مون": 1506,
    "▁میخواهند": 1507,
    "▁طزره": 1508,
    "▁تعهدات": 1509,
    "▁گوشت": 1510,
    "داوم": 1511,
    "▁نگاه": 1512,
    "▁وحش": 1513,
    "▁سابقه": 1514,
    "اک": 1515,
    "وری": 1516,
    "را": 1517,
    "▁د": 1518,
    "▁روشن": 1519,
    "▁صحبت": 1520,
    "اف": 1521,
    "▁قضاییه": 1522,
    "▁نمایش": 1523,
    "▁حضرت": 1524,
    "▁سواحل": 1525,
    "▁صداوسیما": 1526,
    "▁کاندیداتوری": 1527,
    "▁تاسیس": 1528,
    "▁ضروری": 1529,
    "▁تبریز": 1530,
    "▁لینک": 1531,
    "▁انوا": 1532,
    "▁مقایسه": 1533,
    "▁شبهای": 1534,
    "▁پیامک": 1535,
    "▁سیما": 1536,
    "▁ماموران": 1537,
    "▁نفت": 1538,
    "▁یاد": 1539,
    "▁قیمتها": 1540,
    "جمع": 1541,
    "▁حرف": 1542,
    "▁دامنه": 1543,
    "حتما": 1544,
    "▁نوشته": 1545,
    "▁موشکی": 1546,
    "▁هشت": 1547,
    "▁نامزدهای": 1548,
    "▁تلویزیونی": 1549,
    "▁زودی": 1550,
    "▁اختلاف": 1551,
    "▁تحصیلی": 1552,
    "سر": 1553,
    "j": 1554,
    "▁مسجدالاقصی": 1555,
    "▁مطالعه": 1556,
    "▁تکرار": 1557,
    "▁نماز": 1558,
    "▁همیشه": 1559,
    "▁راهاندازی": 1560,
    "▁قطر": 1561,
    "▁ظرفیت": 1562,
    "▁گاز": 1563,
    "▁بندر": 1564,
    "▁1399": 1565,
    "داد": 1566,
    "رد": 1567,
    "▁صفر": 1568,
    "▁آنلاین": 1569,
    "هم": 1570,
    "F": 1571,
    "▁سراسری": 1572,
    "k": 1573,
    "▁مش": 1574,
    "▁400": 1575,
    "▁نبود": 1576,
    "▁محصول": 1577,
    "u": 1578,
    "▁نهم": 1579,
    "▁موثر": 1580,
    "▁سرپرست": 1581,
    "▁دروغ": 1582,
    "▁راحت": 1583,
    "▁فساد": 1584,
    "▁میوه": 1585,
    "▁نژاد": 1586,
    "▁نگرانی": 1587,
    "▁حاج": 1588,
    "مه": 1589,
    "▁مترو": 1590,
    "▁صهیونیست": 1591,
    "▁پاک": 1592,
    "▁آفریقای": 1593,
    "▁انتخاباتی": 1594,
    "▁پیروزی": 1595,
    "▁گرد": 1596,
    "▁قطع": 1597,
    "▁صف": 1598,
    "▁تبادل": 1599,
    "▁جبهه": 1600,
    "▁اولویت": 1601,
    "▁سرعت": 1602,
    "▁دیوار": 1603,
    "▁مجری": 1604,
    "▁خوش": 1605,
    "▁مدارس": 1606,
    "نه": 1607,
    "▁فضا": 1608,
    "▁مرداد": 1609,
    "▁مشاهده": 1610,
    "▁سوزی": 1611,
    "▁اس": 1612,
    "▁یه": 1613,
    "▁ضد": 1614,
    "پس": 1615,
    "وط": 1616,
    "نده": 1617,
    "▁تف": 1618,
    "▁تک": 1619,
    "▁بلا": 1620,
    "▁کمی": 1621,
    "▁محدود": 1622,
    "وس": 1623,
    "▁کالا": 1624,
    "وند": 1625,
    "مین": 1626,
    "راه": 1627,
    "▁کارت": 1628,
    "▁ط": 1629,
    "▁مو": 1630,
    "▁سفرها": 1631,
    "▁دوازدهم": 1632,
    "▁سیستم": 1633,
    "▁دیپلمات": 1634,
    "▁میلاد": 1635,
    "▁یارانه": 1636,
    "▁تقریبا": 1637,
    "▁امید": 1638,
    "▁رایگان": 1639,
    "▁کمبود": 1640,
    "▁0": 1641,
    "▁هلال": 1642,
    "شناس": 1643,
    "▁ابتلای": 1644,
    "▁نکرده": 1645,
    "▁پسر": 1646,
    "▁صادرات": 1647,
    "▁فرزندان": 1648,
    "▁150": 1649,
    "▁نهاد": 1650,
    "▁گرفتند": 1651,
    "▁کری": 1652,
    "دان": 1653,
    "▁برداشته": 1654,
    "▁ایال": 1655,
    "▁یکم": 1656,
    "f": 1657,
    "▁فایزر": 1658,
    "▁وحدت": 1659,
    "▁سنجش": 1660,
    "▁آدم": 1661,
    "▁احمر": 1662,
    "▁محقق": 1663,
    "▁موفقیت": 1664,
    "نشده": 1665,
    "▁دادستان": 1666,
    "▁مذ": 1667,
    "▁هرگونه": 1668,
    "▁نزولی": 1669,
    "▁باقی": 1670,
    "▁چیز": 1671,
    "▁گرفتن": 1672,
    "▁گذاشته": 1673,
    "▁مد": 1674,
    "▁تلف": 1675,
    "▁افتاد": 1676,
    "▁اح": 1677,
    "▁خودروی": 1678,
    "▁پهپاد": 1679,
    "g": 1680,
    "▁عمر": 1681,
    "▁detail": 1682,
    "▁محبوس": 1683,
    "▁دامغان": 1684,
    "▁نحو": 1685,
    "▁عفونت": 1686,
    "▁قطعا": 1687,
    "▁ساده": 1688,
    "▁گلستان": 1689,
    "▁بنیاد": 1690,
    "▁تصویری": 1691,
    "اق": 1692,
    "▁رفته": 1693,
    "گین": 1694,
    "▁اطلاع": 1695,
    "c": 1696,
    "▁آماد": 1697,
    "▁دوران": 1698,
    "رت": 1699,
    "▁ایمنی": 1700,
    "▁پیشین": 1701,
    "توقف": 1702,
    "▁واکسنهای": 1703,
    "▁joinc": 1704,
    "▁چارچوب": 1705,
    "▁نقض": 1706,
    "▁احساس": 1707,
    "▁میآید": 1708,
    "▁تبلیغات": 1709,
    "▁ابراهیم": 1710,
    "▁حرفهای": 1711,
    "▁کجا": 1712,
    "▁نر": 1713,
    "▁صح": 1714,
    "▁مالک": 1715,
    "b": 1716,
    "▁کارشناسان": 1717,
    "▁تلویزیون": 1718,
    "برداری": 1719,
    "▁منطق": 1720,
    "▁گذشت": 1721,
    "آور": 1722,
    "▁خورد": 1723,
    "▁ترخیص": 1724,
    "▁حکومت": 1725,
    "▁دعوت": 1726,
    "▁احمدینژاد": 1727,
    "▁متفاوت": 1728,
    "▁آلمان": 1729,
    "▁آمریکاییها": 1730,
    "▁اندازه": 1731,
    "▁مانع": 1732,
    "▁دستیار": 1733,
    "▁ارزان": 1734,
    "▁اص": 1735,
    "▁45": 1736,
    "▁ورزش": 1737,
    "▁فرج": 1738,
    "▁نیوز": 1739,
    "▁ابری": 1740,
    "جانی": 1741,
    "▁امداد": 1742,
    "گرد": 1743,
    "رف": 1744,
    "ستانه": 1745,
    "▁زود": 1746,
    "پذیر": 1747,
    "▁وضع": 1748,
    "▁محمود": 1749,
    "▁تقویت": 1750,
    "▁رویترز": 1751,
    "▁موتور": 1752,
    "▁شکایت": 1753,
    "▁میکنه": 1754,
    "▁روغن": 1755,
    "▁برگشت": 1756,
    "▁لباس": 1757,
    "▁اسناد": 1758,
    "ما": 1759,
    "▁حاکی": 1760,
    "▁پلاک": 1761,
    "▁خدمت": 1762,
    "▁نفع": 1763,
    "▁رسم": 1764,
    "▁شیر": 1765,
    "▁پاسداران": 1766,
    "نمایی": 1767,
    "▁روش": 1768,
    "▁نهایت": 1769,
    "▁شست": 1770,
    "▁نوار": 1771,
    "▁دادهاند": 1772,
    "▁برنامههای": 1773,
    "▁کاندیدا": 1774,
    "▁سرمایهگذاری": 1775,
    "▁نزدیکی": 1776,
    "▁زیست": 1777,
    "▁فعل": 1778,
    "▁منتشرشده": 1779,
    "▁بهتر": 1780,
    "سی": 1781,
    "▁مردان": 1782,
    "▁فوری": 1783,
    "▁شهروند": 1784,
    "▁اظهار": 1785,
    "▁98": 1786,
    "▁برج": 1787,
    "▁اشتباه": 1788,
    "▁ژاپن": 1789,
    "▁کربلا": 1790,
    "▁معادل": 1791,
    "▁استخدام": 1792,
    "▁خمینی": 1793,
    "▁جالب": 1794,
    "▁جهاد": 1795,
    "▁قوانین": 1796,
    "▁منزل": 1797,
    "▁خانگی": 1798,
    "▁امیدواریم": 1799,
    "▁جوجه": 1800,
    "▁فی": 1801,
    "▁هموار": 1802,
    "▁تاخیر": 1803,
    "▁واقعا": 1804,
    "▁نامهای": 1805,
    "هاند": 1806,
    "▁داشتن": 1807,
    "▁اون": 1808,
    "علی": 1809,
    "آ": 1810,
    "▁گونه": 1811,
    "غم": 1812,
    "▁سلام": 1813,
    "▁ات": 1814,
    "بل": 1815,
    "▁انسان": 1816,
    "▁خوردن": 1817,
    "▁الاقصی": 1818,
    "▁تسنیم": 1819,
    "▁صنف": 1820,
    "▁دیپلماسی": 1821,
    "▁اجاره": 1822,
    "▁تونل": 1823,
    "▁مدارک": 1824,
    "▁بگیرد": 1825,
    "▁نادر": 1826,
    "▁تجارت": 1827,
    "▁حرم": 1828,
    "▁قله": 1829,
    "▁فرود": 1830,
    "▁بعدی": 1831,
    "▁حالت": 1832,
    "▁نمکی": 1833,
    "▁همدان": 1834,
    "▁پور": 1835,
    "w": 1836,
    "▁خیابان": 1837,
    "▁مس": 1838,
    "تل": 1839,
    "▁نمونه": 1840,
    "▁مذاکرهکنند": 1841,
    "▁دید": 1842,
    "▁خودشان": 1843,
    "▁تحقیق": 1844,
    "رسانی": 1845,
    "▁akhbar": 1846,
    "▁اعزام": 1847,
    "▁اواخر": 1848,
    "▁مجروح": 1849,
    "▁مواضع": 1850,
    "▁سالمندان": 1851,
    "▁آشنا": 1852,
    "▁دقایق": 1853,
    "▁مرتب": 1854,
    "▁توئیت": 1855,
    "▁جدول": 1856,
    "▁گیتس": 1857,
    "▁مهیب": 1858,
    "▁آنجا": 1859,
    "گذار": 1860,
    "▁انتقاد": 1861,
    "▁میدهیم": 1862,
    "▁بیاید": 1863,
    "▁گیرد": 1864,
    "▁مناف": 1865,
    "▁سگ": 1866,
    "▁شوید": 1867,
    "▁جهانگیری": 1868,
    "▁میز": 1869,
    "▁روزها": 1870,
    "▁پایبند": 1871,
    "برد": 1872,
    "▁33": 1873,
    "▁بزرگی": 1874,
    "▁بیل": 1875,
    "لو": 1876,
    "hat": 1877,
    "▁علمی": 1878,
    "▁دانشگاهها": 1879,
    "▁گفتند": 1880,
    "▁تحلیل": 1881,
    "سل": 1882,
    "▁پیشرفت": 1883,
    "▁سند": 1884,
    "▁کالاهای": 1885,
    "▁امتحان": 1886,
    "سط": 1887,
    "خت": 1888,
    "▁اسپوتنیک": 1889,
    "▁تراکتور": 1890,
    "▁توقیف": 1891,
    "▁رییسجمهور": 1892,
    "▁معیشت": 1893,
    "▁جلسات": 1894,
    "▁بومی": 1895,
    "▁لاری": 1896,
    "▁طالبان": 1897,
    "▁جواب": 1898,
    "▁نبوده": 1899,
    "▁جایگاه": 1900,
    "▁رفتن": 1901,
    "▁تصمیمگیری": 1902,
    "▁فطریه": 1903,
    "▁ایم": 1904,
    "▁وزن": 1905,
    "▁ساکن": 1906,
    "▁31": 1907,
    "اهل": 1908,
    "▁بل": 1909,
    "▁تخصصی": 1910,
    "اقد": 1911,
    "▁گروهی": 1912,
    "حسین": 1913,
    "▁شغلی": 1914,
    "▁ویدئو": 1915,
    "▁800": 1916,
    "▁فعلی": 1917,
    "▁اوج": 1918,
    "▁کا": 1919,
    "▁زده": 1920,
    "▁توصیه": 1921,
    "ریق": 1922,
    "▁ری": 1923,
    "▁عزیز": 1924,
    "دام": 1925,
    "▁آهن": 1926,
    "اپ": 1927,
    "▁اتخاذ": 1928,
    "▁اتوبوس": 1929,
    "▁بحرین": 1930,
    "▁خلیجفارس": 1931,
    "▁زلزله": 1932,
    "▁شریف": 1933,
    "▁تشدید": 1934,
    "▁شعب": 1935,
    "▁کافی": 1936,
    "▁امارات": 1937,
    "▁کرمانشاه": 1938,
    "▁اطلاعرسانی": 1939,
    "▁میزبان": 1940,
    "▁ادعا": 1941,
    "▁نوبت": 1942,
    "▁میخواهد": 1943,
    "00": 1944,
    "▁مطالبات": 1945,
    "▁بدهید": 1946,
    "▁نگهدار": 1947,
    "▁ساحلی": 1948,
    "▁قطعه": 1949,
    "▁بچه": 1950,
    "▁قا": 1951,
    "▁داره": 1952,
    "دن": 1953,
    "لی": 1954,
    "▁دستورالعمل": 1955,
    "▁اصل": 1956,
    "▁بدهی": 1957,
    "▁درگیر": 1958,
    "▁ساخته": 1959,
    "▁700": 1960,
    "Y": 1961,
    "▁ابتدا": 1962,
    "چون": 1963,
    "▁ارزی": 1964,
    "▁اب": 1965,
    "▁اسد": 1966,
    "▁مراجع": 1967,
    "▁ترم": 1968,
    "▁قوا": 1969,
    "نز": 1970,
    "▁قو": 1971,
    "▁بنا": 1972,
    "▁الکترونیک": 1973,
    "▁سایپا": 1974,
    "▁گناوه": 1975,
    "▁غالب": 1976,
    "▁خشک": 1977,
    "▁تابستان": 1978,
    "▁اتاق": 1979,
    "▁طولانی": 1980,
    "▁سیلاب": 1981,
    "▁کیفیت": 1982,
    "▁آنان": 1983,
    "▁اشغالگر": 1984,
    "▁اصلاحات": 1985,
    "▁عم": 1986,
    "▁سیب": 1987,
    "▁ان": 1988,
    "▁سخنان": 1989,
    "▁2021": 1990,
    "▁محله": 1991,
    "▁محدوده": 1992,
    "▁سریع": 1993,
    "▁فرهنگی": 1994,
    "▁مجموعه": 1995,
    "▁آوار": 1996,
    "▁لا": 1997,
    "▁شهری": 1998,
    "▁حمل": 1999,
    "▁سالانه": 2000,
    "▁دارایی": 2001,
    "▁بهشت": 2002,
    "▁شهرها": 2003,
    "▁شش": 2004,
    "دیه": 2005,
    "▁مصدوم": 2006,
    "▁فرار": 2007,
    "زن": 2008,
    "▁افتتاح": 2009,
    "▁روبیکا": 2010,
    "▁سفیر": 2011,
    "▁لحاظ": 2012,
    "▁استقبال": 2013,
    "▁فینال": 2014,
    "▁صمت": 2015,
    "▁برسد": 2016,
    "▁ملل": 2017,
    "▁نصب": 2018,
    "▁غنی": 2019,
    "▁یابد": 2020,
    "▁تحول": 2021,
    "▁مهار": 2022,
    "ورد": 2023,
    "▁29": 2024,
    "▁مراقبت": 2025,
    "▁پوشش": 2026,
    "▁تبع": 2027,
    "جر": 2028,
    "▁خیر": 2029,
    "رضا": 2030,
    "▁عربی": 2031,
    "▁شهرسازی": 2032,
    "▁متن": 2033,
    "▁صنعتی": 2034,
    "▁پنجم": 2035,
    "▁فوتی": 2036,
    "▁عین": 2037,
    "▁وعده": 2038,
    "▁بازرسی": 2039,
    "▁28": 2040,
    "شت": 2041,
    "▁حسینی": 2042,
    "▁غذایی": 2043,
    "نیوز": 2044,
    "وج": 2045,
    "▁عراقی": 2046,
    "an": 2047,
    "U": 2048,
    "▁اتری": 2049,
    "▁طلای": 2050,
    "▁ادار": 2051,
    "▁اختلال": 2052,
    "▁استراتژی": 2053,
    "▁اطراف": 2054,
    "▁تعلیق": 2055,
    "▁تکلیف": 2056,
    "▁معتقد": 2057,
    "▁نتانیاهو": 2058,
    "▁سیزدهم": 2059,
    "▁صفحه": 2060,
    "▁کابینه": 2061,
    "▁بقیه": 2062,
    "▁مهلت": 2063,
    "▁هاوس": 2064,
    "▁مذهب": 2065,
    "▁هتل": 2066,
    "▁akhbare": 2067,
    "▁صاحب": 2068,
    "درس": 2069,
    "▁زا": 2070,
    "▁شهریور": 2071,
    "▁برقرار": 2072,
    "گو": 2073,
    "▁توضیحات": 2074,
    "▁کلاب": 2075,
    "▁عد": 2076,
    "وتس": 2077,
    "▁راهور": 2078,
    "▁موقتی": 2079,
    "▁بیت": 2080,
    "▁استاندار": 2081,
    "▁دسته": 2082,
    "آباد": 2083,
    "نظر": 2084,
    "▁وظیفه": 2085,
    "O": 2086,
    "▁لو": 2087,
    "▁هواپیما": 2088,
    "احی": 2089,
    "▁شنیده": 2090,
    "▁دوست": 2091,
    "▁تخلف": 2092,
    "▁نفتی": 2093,
    "▁صفادشت": 2094,
    "▁موبایل": 2095,
    "▁نخستوزیر": 2096,
    "▁نفوذ": 2097,
    "▁شناور": 2098,
    "▁فهرست": 2099,
    "▁نباشد": 2100,
    "▁داعش": 2101,
    "▁برنامهریزی": 2102,
    "▁سرنوشت": 2103,
    "▁اهداف": 2104,
    "▁باشید": 2105,
    "▁بقایای": 2106,
    "▁فریب": 2107,
    "▁حاشیه": 2108,
    "▁بیشتری": 2109,
    "▁بخواه": 2110,
    "▁بازنشستگان": 2111,
    "▁موافقت": 2112,
    "▁نسل": 2113,
    "▁بهبود": 2114,
    "▁میخواهی": 2115,
    "▁خطیب": 2116,
    "▁میکردند": 2117,
    "▁جادهای": 2118,
    "▁600": 2119,
    "▁شورا": 2120,
    "▁گردید": 2121,
    "قانونی": 2122,
    "▁روح": 2123,
    "▁ام": 2124,
    "▁استاد": 2125,
    "▁گذاشت": 2126,
    "▁تصمیمات": 2127,
    "▁دز": 2128,
    "خاطر": 2129,
    "▁شکسته": 2130,
    "▁u": 2131,
    "▁سامان": 2132,
    "فاصله": 2133,
    "▁رها": 2134,
    "بخش": 2135,
    "▁بررسیها": 2136,
    "▁مدیره": 2137,
    "▁سنی": 2138,
    "▁نشانی": 2139,
    "رج": 2140,
    "▁شی": 2141,
    "▁اخ": 2142,
    "▁گستر": 2143,
    "▁نداشت": 2144,
    "▁اعتماد": 2145,
    "▁متخصص": 2146,
    "▁مطالعات": 2147,
    "▁اسفند": 2148,
    "▁لوازم": 2149,
    "▁معادن": 2150,
    "▁مشابه": 2151,
    "▁الریان": 2152,
    "▁حمید": 2153,
    "▁سیاستها": 2154,
    "▁نکنید": 2155,
    "▁کادر": 2156,
    "دهی": 2157,
    "اره": 2158,
    "ظ": 2159,
    "▁عهده": 2160,
    "▁دهیم": 2161,
    "▁توییتر": 2162,
    "▁رسانهای": 2163,
    "▁راس": 2164,
    "▁مطالبه": 2165,
    "▁فروشگاه": 2166,
    "▁حاصل": 2167,
    "▁پار": 2168,
    "▁گفتگوی": 2169,
    "▁جواد": 2170,
    "آمیز": 2171,
    "▁آت": 2172,
    "حص": 2173,
    "شهر": 2174,
    "▁خاصی": 2175,
    "▁دهه": 2176,
    "▁جنجالی": 2177,
    "▁ورزشی": 2178,
    "▁عملی": 2179,
    "▁هما": 2180,
    "شدن": 2181,
    "▁روس": 2182,
    "▁کالای": 2183,
    "▁عرب": 2184,
    "▁معلم": 2185,
    "▁نسب": 2186,
    "یب": 2187,
    "▁پذیرش": 2188,
    "▁عوارض": 2189,
    "▁افطار": 2190,
    "▁تنظیم": 2191,
    "▁شرط": 2192,
    "▁نخواهیم": 2193,
    "▁حوال": 2194,
    "▁کنگره": 2195,
    "▁تجهیزات": 2196,
    "▁امتیاز": 2197,
    "▁طبیعی": 2198,
    "▁قارچ": 2199,
    "▁رمز": 2200,
    "▁فراهم": 2201,
    "▁جناح": 2202,
    "▁حیات": 2203,
    "▁زنجیرهای": 2204,
    "▁مدال": 2205,
    "▁شیراز": 2206,
    "▁محروم": 2207,
    "▁آموزشی": 2208,
    "▁آر": 2209,
    "باع": 2210,
    "94": 2211,
    "▁32": 2212,
    "▁اطلاعیه": 2213,
    "▁سران": 2214,
    "انون": 2215,
    "▁بروز": 2216,
    "▁برود": 2217,
    "وز": 2218,
    "▁کف": 2219,
    "باز": 2220,
    "گران": 2221,
    "▁بارها": 2222,
    "▁بازه": 2223,
    "900": 2224,
    "زیست": 2225,
    "▁گفتوگوهای": 2226,
    "▁گزارشهای": 2227,
    "▁کلاهبرداری": 2228,
    "▁فلسطینیان": 2229,
    "مومنی": 2230,
    "تومان": 2231,
    "▁گردان": 2232,
    "▁پرس": 2233,
    "▁گزارشها": 2234,
    "▁اش": 2235,
    "▁برداری": 2236,
    "▁رفتار": 2237,
    "▁تنش": 2238,
    "▁راهی": 2239,
    "30": 2240,
    "با": 2241,
    "▁ظرف": 2242,
    "▁السلام": 2243,
    "▁املاک": 2244,
    "▁جستجو": 2245,
    "▁فناوری": 2246,
    "▁نیویورک": 2247,
    "▁جبران": 2248,
    "▁الزام": 2249,
    "▁ندارم": 2250,
    "▁قدم": 2251,
    "▁خطرناک": 2252,
    "▁نهادها": 2253,
    "▁نظرسنجی": 2254,
    "▁افکار": 2255,
    "▁تصادف": 2256,
    "▁حس": 2257,
    "▁گام": 2258,
    "▁W": 2259,
    "▁فعالیتهای": 2260,
    "▁بلند": 2261,
    "▁دانشآموزان": 2262,
    "▁کارمندان": 2263,
    "▁آمدن": 2264,
    "غول": 2265,
    "▁دار": 2266,
    "▁اف": 2267,
    "ایر": 2268,
    "یلم": 2269,
    "ava": 2270,
    "ویه": 2271,
    "N": 2272,
    "زه": 2273,
    "1400": 2274,
    "▁پروژه": 2275,
    "▁افزود": 2276,
    "بس": 2277,
    "▁اصولگرا": 2278,
    "▁اسلام": 2279,
    "حال": 2280,
    "▁نشد": 2281,
    "پر": 2282,
    "▁دین": 2283,
    "شون": 2284,
    "▁بشنوید": 2285,
    "▁تخریب": 2286,
    "▁حفاظت": 2287,
    "▁ذوب": 2288,
    "▁مشهد": 2289,
    "▁پاکستان": 2290,
    "▁شیخ": 2291,
    "▁شاه": 2292,
    "▁وزرا": 2293,
    "▁زک": 2294,
    "▁گفتوگوی": 2295,
    "▁خریدار": 2296,
    "▁جرم": 2297,
    "دلیل": 2298,
    "▁هواپیمایی": 2299,
    "▁واقعی": 2300,
    "▁غ": 2301,
    "▁کشاورزی": 2302,
    "▁اسم": 2303,
    "▁S": 2304,
    "ائی": 2305,
    "بین": 2306,
    "▁آرامش": 2307,
    "▁کوه": 2308,
    "الدین": 2309,
    "▁ورودی": 2310,
    "▁آی": 2311,
    "یح": 2312,
    "▁شیوه": 2313,
    "وحش": 2314,
    "▁مر": 2315,
    "اران": 2316,
    "▁مطالب": 2317,
    "▁85": 2318,
    "▁اسرائیلی": 2319,
    "▁گزینه": 2320,
    "▁گوش": 2321,
    "▁سالم": 2322,
    "▁موسس": 2323,
    "▁ز": 2324,
    "▁جراح": 2325,
    "▁آل": 2326,
    "▁بزرگتر": 2327,
    "▁متری": 2328,
    "ایران": 2329,
    "▁بو": 2330,
    "▁سهم": 2331,
    "▁اصناف": 2332,
    "▁تماشا": 2333,
    "▁سایبری": 2334,
    "▁مصطف": 2335,
    "▁سرویس": 2336,
    "▁موانع": 2337,
    "▁ناگهان": 2338,
    "▁سقف": 2339,
    "▁تلخ": 2340,
    "▁لذ": 2341,
    "▁نکنند": 2342,
    "▁آلودگی": 2343,
    "▁بنز": 2344,
    "▁شک": 2345,
    "▁قدیمی": 2346,
    "▁اصولگرایان": 2347,
    "ساب": 2348,
    "▁فقره": 2349,
    "▁همتی": 2350,
    "▁برداشت": 2351,
    "▁هواپیمای": 2352,
    "▁کوین": 2353,
    "20": 2354,
    "انداز": 2355,
    "فه": 2356,
    "▁صدر": 2357,
    "▁اتفاقات": 2358,
    "▁نشین": 2359,
    "▁مرزی": 2360,
    "▁درمانی": 2361,
    "▁آورد": 2362,
    "▁سرزمین": 2363,
    "▁امت": 2364,
    "گیر": 2365,
    "توق": 2366,
    "اع": 2367,
    "▁اصلاح": 2368,
    "▁رایزنی": 2369,
    "▁صحنه": 2370,
    "▁نکرد": 2371,
    "▁واکسنها": 2372,
    "▁آزمونها": 2373,
    "ویروس": 2374,
    "▁روستای": 2375,
    "▁نیازمند": 2376,
    "گری": 2377,
    "▁رساند": 2378,
    "▁جدیت": 2379,
    "▁امضا": 2380,
    "▁توضیح": 2381,
    "▁اینترنت": 2382,
    "▁قدیم": 2383,
    "am": 2384,
    "نندگان": 2385,
    "▁آم": 2386,
    "▁محترم": 2387,
    "▁سفارش": 2388,
    "▁پرچم": 2389,
    "▁ناجا": 2390,
    "▁گلوله": 2391,
    "▁برکت": 2392,
    "▁ماموریت": 2393,
    "▁دیپلماتیک": 2394,
    "▁تایمز": 2395,
    "▁محکومیت": 2396,
    "▁میباشد": 2397,
    "▁کنسولگری": 2398,
    "▁عج": 2399,
    "▁احمد": 2400,
    "ونی": 2401,
    "▁نقشه": 2402,
    "▁ناز": 2403,
    "غلب": 2404,
    "▁همسرش": 2405,
    "▁افشا": 2406,
    "▁مسئولین": 2407,
    "▁مسابقه": 2408,
    "▁کام": 2409,
    "▁داشتیم": 2410,
    "▁هشتم": 2411,
    "اس": 2412,
    "▁موشکهای": 2413,
    "▁رقابتها": 2414,
    "ریز": 2415,
    "▁نیرو": 2416,
    "▁شهرستانهای": 2417,
    "▁اقدامی": 2418,
    "دو": 2419,
    "وت": 2420,
    "▁سالها": 2421,
    "▁اصلاحطلب": 2422,
    "▁میل": 2423,
    "▁گم": 2424,
    "لا": 2425,
    "▁اهواز": 2426,
    "▁شجاع": 2427,
    "▁فراموش": 2428,
    "▁شناسنامه": 2429,
    "▁نخواهند": 2430,
    "▁پوتین": 2431,
    "▁کارگروه": 2432,
    "▁تفسیر": 2433,
    "▁بمب": 2434,
    "▁المیادین": 2435,
    "▁حماس": 2436,
    "▁مقدس": 2437,
    "▁مغز": 2438,
    "▁حیوانات": 2439,
    "▁مصر": 2440,
    "▁طلاق": 2441,
    "▁نور": 2442,
    "▁پیوست": 2443,
    "▁احمدی": 2444,
    "▁دوربین": 2445,
    "▁مکان": 2446,
    "▁34": 2447,
    "▁ذر": 2448,
    "▁اسک": 2449,
    "▁تخت": 2450,
    "▁بهمن": 2451,
    "▁خریداری": 2452,
    "نشدهو": 2453,
    "▁F": 2454,
    "▁نامزدها": 2455,
    "▁هستم": 2456,
    "▁دمای": 2457,
    "▁آباد": 2458,
    "▁جم": 2459,
    "صادف": 2460,
    "▁رمزارزها": 2461,
    "▁پیشگیر": 2462,
    "▁تروریس": 2463,
    "▁پوش": 2464,
    "▁بازرگانی": 2465,
    "▁51": 2466,
    "al": 2467,
    "▁تند": 2468,
    "▁ماست": 2469,
    "قابل": 2470,
    "وسی": 2471,
    "سیون": 2472,
    "▁برده": 2473,
    "▁میده": 2474,
    "▁خودروساز": 2475,
    "▁کنونی": 2476,
    "▁96": 2477,
    "▁اعلامشدهاست": 2478,
    "▁مال": 2479,
    "▁پک": 2480,
    "▁مقدار": 2481,
    "▁سبز": 2482,
    "▁آلود": 2483,
    "نین": 2484,
    "▁مشکوک": 2485,
    "▁نطنز": 2486,
    "▁کامرانیه": 2487,
    "▁منچستر": 2488,
    "▁زهرا": 2489,
    "▁سبب": 2490,
    "▁روبرو": 2491,
    "▁فروخته": 2492,
    "▁حجازی": 2493,
    "▁نکته": 2494,
    "▁اعدام": 2495,
    "▁هواداران": 2496,
    "▁عیار": 2497,
    "شویی": 2498,
    "دکست": 2499,
    "▁سینما": 2500,
    "▁ارزیابی": 2501,
    "▁مص": 2502,
    "▁حسابهای": 2503,
    "▁مرزبان": 2504,
    "▁جنین": 2505,
    "▁قابلیت": 2506,
    "▁مخدر": 2507,
    "▁دارم": 2508,
    "▁قضائیه": 2509,
    "▁تع": 2510,
    "▁انسانی": 2511,
    "▁تلفات": 2512,
    "▁واقعیت": 2513,
    "▁طبقه": 2514,
    "▁دانشجوی": 2515,
    "▁صرف": 2516,
    "▁بانکهای": 2517,
    "وف": 2518,
    "▁زو": 2519,
    "▁کردهبودند": 2520,
    "▁صرافیها": 2521,
    "جو": 2522,
    "▁37": 2523,
    "▁الهی": 2524,
    "▁مل": 2525,
    "صد": 2526,
    "▁آور": 2527,
    "▁شهدای": 2528,
    "شد": 2529,
    "▁120": 2530,
    "▁قیمتهای": 2531,
    "▁خانوار": 2532,
    "▁ابو": 2533,
    "سان": 2534,
    "▁قبلی": 2535,
    "دانی": 2536,
    "▁معترض": 2537,
    "▁ایرانیان": 2538,
    "وح": 2539,
    "مر": 2540,
    "▁تخم": 2541,
    "▁امریکا": 2542,
    "گار": 2543,
    "▁اخراج": 2544,
    "▁اسماعیل": 2545,
    "▁زغال": 2546,
    "▁فرستاد": 2547,
    "▁مطلع": 2548,
    "▁نمیدهد": 2549,
    "▁اصرار": 2550,
    "▁جاسوس": 2551,
    "▁داغ": 2552,
    "▁سناتور": 2553,
    "▁تمایل": 2554,
    "▁برزیل": 2555,
    "▁دانشمند": 2556,
    "▁استعفا": 2557,
    "▁بامداد": 2558,
    "▁پاکبان": 2559,
    "▁الجزیره": 2560,
    "▁الم": 2561,
    "▁گشت": 2562,
    "▁تنفس": 2563,
    "▁بگیرند": 2564,
    "▁کردهایم": 2565,
    "▁سوییس": 2566,
    "بو": 2567,
    "▁92": 2568,
    "▁لوله": 2569,
    "▁رضایت": 2570,
    "ضی": 2571,
    "داران": 2572,
    "▁کمال": 2573,
    "▁راستی": 2574,
    "▁اصلا": 2575,
    "▁خلاف": 2576,
    "▁خواب": 2577,
    "دیده": 2578,
    "▁حذفی": 2579,
    "▁سنت": 2580,
    "▁تنگ": 2581,
    "پل": 2582,
    "▁نقدی": 2583,
    "▁نداده": 2584,
    "▁هراز": 2585,
    "▁ارتباطات": 2586,
    "▁ارزهای": 2587,
    "▁اداری": 2588,
    "▁وابست": 2589,
    "er": 2590,
    "▁کلید": 2591,
    "▁ویدئوی": 2592,
    "کر": 2593,
    "▁دهم": 2594,
    "▁55": 2595,
    "▁حدی": 2596,
    "▁کلاس": 2597,
    "▁گفتم": 2598,
    "S": 2599,
    "رع": 2600,
    "یاض": 2601,
    "W": 2602,
    "جواد": 2603,
    "رز": 2604,
    "▁دانست": 2605,
    "▁درگیریها": 2606,
    "▁بیمارستانها": 2607,
    "پا": 2608,
    "▁چهره": 2609,
    "گل": 2610,
    "▁خواسته": 2611,
    "کم": 2612,
    "▁نگه": 2613,
    "صرفا": 2614,
    "▁مسلمان": 2615,
    "▁واگذار": 2616,
    "▁اینفوگرافی": 2617,
    "▁ضعیف": 2618,
    "▁علیهالسلام": 2619,
    "▁مفقود": 2620,
    "▁مییابد": 2621,
    "▁اکسیژن": 2622,
    "▁ذکر": 2623,
    "▁سرمربی": 2624,
    "▁هجوم": 2625,
    "▁زاغری": 2626,
    "▁الاسد": 2627,
    "▁وصول": 2628,
    "▁قرن": 2629,
    "▁سکونت": 2630,
    "▁نیکشهر": 2631,
    "▁لایحه": 2632,
    "▁نوزاد": 2633,
    "▁باخت": 2634,
    "▁شیمیایی": 2635,
    "▁مصلحت": 2636,
    "▁ملیندا": 2637,
    "▁سبد": 2638,
    "▁چطور": 2639,
    "▁نفتکش": 2640,
    "▁واگذاری": 2641,
    "ثار": 2642,
    "▁سکو": 2643,
    "▁میخواست": 2644,
    "▁مرور": 2645,
    "▁پاستور": 2646,
    "▁اوکراین": 2647,
    "رعی": 2648,
    "▁اینترنتی": 2649,
    "▁مخالفت": 2650,
    "▁ترس": 2651,
    "▁مق": 2652,
    "تان": 2653,
    "ضار": 2654,
    "▁بست": 2655,
    "▁گرفتار": 2656,
    "یچ": 2657,
    "ابت": 2658,
    "▁جمعی": 2659,
    "90": 2660,
    "▁دیدارهای": 2661,
    "▁بدتر": 2662,
    "لینی": 2663,
    "رید": 2664,
    "اید": 2665,
    "▁اینها": 2666,
    "ینگ": 2667,
    "ub": 2668,
    "▁ششم": 2669,
    "▁تغییرات": 2670,
    "کا": 2671,
    "▁مواجهه": 2672,
    "ربع": 2673,
    "هان": 2674,
    "▁بارشها": 2675,
    "▁صرافی": 2676,
    "▁سور": 2677,
    "بد": 2678,
    "یست": 2679,
    "▁کارهای": 2680,
    "تک": 2681,
    "▁کردم": 2682,
    "▁خودروها": 2683,
    "▁مالکی": 2684,
    "▁گرانی": 2685,
    "▁46": 2686,
    "▁آخوندی": 2687,
    "▁مهمان": 2688,
    "▁آسم": 2689,
    "▁قاسمی": 2690,
    "▁39": 2691,
    "▁صلاحیتها": 2692,
    "▁موضع": 2693,
    "▁موقع": 2694,
    "خواهان": 2695,
    "▁مستند": 2696,
    "بان": 2697,
    "▁فلسطینیها": 2698,
    "▁توکیو": 2699,
    "▁حوادث": 2700,
    "▁دانلود": 2701,
    "▁راهپیمایی": 2702,
    "▁طبیعت": 2703,
    "▁مجبور": 2704,
    "▁پدافند": 2705,
    "▁خشونت": 2706,
    "▁نمیکنم": 2707,
    "▁کلابهاوس": 2708,
    "▁ثابت": 2709,
    "▁خیانت": 2710,
    "▁نمیکند": 2711,
    "▁سحر": 2712,
    "▁جزییات": 2713,
    "▁علاقه": 2714,
    "▁رودخانه": 2715,
    "▁معنوی": 2716,
    "▁گوگل": 2717,
    "▁اخلال": 2718,
    "▁حساس": 2719,
    "▁نگرفته": 2720,
    "▁حزبالله": 2721,
    "▁نکند": 2722,
    "▁48": 2723,
    "▁طوری": 2724,
    "▁نتوانست": 2725,
    "ستری": 2726,
    "▁بدهد": 2727,
    "▁mohsen": 2728,
    "▁تدریج": 2729,
    "▁تسلیت": 2730,
    "▁گفتهبود": 2731,
    "▁سنگک": 2732,
    "▁شخص": 2733,
    "▁باور": 2734,
    "▁دادگ": 2735,
    "▁جراحی": 2736,
    "▁گردد": 2737,
    "▁صوت": 2738,
    "▁خوانند": 2739,
    "بال": 2740,
    "▁اختلافات": 2741,
    "▁روستا": 2742,
    "▁دیدن": 2743,
    "▁یکسال": 2744,
    "▁هل": 2745,
    "نشین": 2746,
    "▁کنم": 2747,
    "▁شدهبودند": 2748,
    "▁دختران": 2749,
    "صل": 2750,
    "خوانی": 2751,
    "96": 2752,
    "▁حکا": 2753,
    "▁لای": 2754,
    "▁شرکتها": 2755,
    "▁خان": 2756,
    "▁پیشرفتهای": 2757,
    "▁یافتن": 2758,
    "بالغ": 2759,
    "▁جر": 2760,
    "▁انجامشدهاست": 2761,
    "▁گوشی": 2762,
    "اما": 2763,
    "▁ماهه": 2764,
    "▁محورهای": 2765,
    "▁ربا": 2766,
    "▁سرزمینها": 2767,
    "▁مه": 2768,
    "▁رده": 2769,
    "▁گفتوگوها": 2770,
    "وب": 2771,
    "▁سخن": 2772,
    "خور": 2773,
    "▁مور": 2774,
    "200": 2775,
    "▁ایتالیا": 2776,
    "▁شفاف": 2777,
    "▁اپلیکیشن": 2778,
    "▁تقدیر": 2779,
    "▁تقلب": 2780,
    "▁تکنولوژی": 2781,
    "▁ضعف": 2782,
    "▁ریشتر": 2783,
    "▁موسیقی": 2784,
    "▁نقدینگی": 2785,
    "▁برسیم": 2786,
    "▁خاتم": 2787,
    "▁نسخه": 2788,
    "▁اقامت": 2789,
    "▁عشق": 2790,
    "▁نوسان": 2791,
    "▁راننده": 2792,
    "▁آتشنشان": 2793,
    "▁رصد": 2794,
    "▁فروشندگان": 2795,
    "▁قاضی": 2796,
    "▁فرنگ": 2797,
    "▁دلایل": 2798,
    "▁فراوان": 2799,
    "▁مباد": 2800,
    "▁سرباز": 2801,
    "▁کشاورزان": 2802,
    "▁سعی": 2803,
    "▁پایانی": 2804,
    "▁درحالی": 2805,
    "▁هلند": 2806,
    "▁65": 2807,
    "▁کارگزاران": 2808,
    "▁زاگ": 2809,
    "رب": 2810,
    "▁سینمای": 2811,
    "▁آهنین": 2812,
    "▁روسی": 2813,
    "▁احت": 2814,
    "▁ایالت": 2815,
    "▁آخوند": 2816,
    "▁تحصیل": 2817,
    "▁مجازات": 2818,
    "▁میدانند": 2819,
    "▁اپ": 2820,
    "▁کاهشی": 2821,
    "▁تور": 2822,
    "▁اذ": 2823,
    "▁ایمن": 2824,
    "▁کنه": 2825,
    "▁گردن": 2826,
    "▁اوقا": 2827,
    "▁جانش": 2828,
    "▁بیماریهای": 2829,
    "▁اند": 2830,
    "پوش": 2831,
    "▁2020": 2832,
    "▁آورده": 2833,
    "▁فوتیها": 2834,
    "▁ویدیویی": 2835,
    "▁دیگران": 2836,
    "▁c": 2837,
    "▁گرمی": 2838,
    "▁ریه": 2839,
    "▁استرس": 2840,
    "▁دستگاههای": 2841,
    "عید": 2842,
    "افت": 2843,
    "یق": 2844,
    "▁جنسی": 2845,
    "اله": 2846,
    "▁توان": 2847,
    "فدراسیون": 2848,
    "▁مستمری": 2849,
    "▁دوستان": 2850,
    "▁حاجی": 2851,
    "▁روانی": 2852,
    "▁داوطلب": 2853,
    "▁مخاطب": 2854,
    "▁گفتن": 2855,
    "رهنگ": 2856,
    "باف": 2857,
    "▁دلاری": 2858,
    "▁مست": 2859,
    "▁خانههای": 2860,
    "▁زیبا": 2861,
    "▁زنی": 2862,
    "ولی": 2863,
    "▁آسترازنکا": 2864,
    "▁اشخاص": 2865,
    "▁الشرطه": 2866,
    "▁اوضاع": 2867,
    "▁بعدازظهر": 2868,
    "▁بلژیک": 2869,
    "▁دخالت": 2870,
    "▁قاطع": 2871,
    "▁مستاجر": 2872,
    "▁مسوول": 2873,
    "▁نصرالله": 2874,
    "▁هدایت": 2875,
    "▁اشرار": 2876,
    "▁داستان": 2877,
    "▁فیلتر": 2878,
    "▁دیگه": 2879,
    "▁صلح": 2880,
    "▁مدرک": 2881,
    "▁یازدهم": 2882,
    "▁پاسپورت": 2883,
    "▁نکات": 2884,
    "▁مشتری": 2885,
    "▁تخفیف": 2886,
    "▁وسایل": 2887,
    "▁توهین": 2888,
    "▁ملخ": 2889,
    "▁جهانپور": 2890,
    "▁تعق": 2891,
    "▁دق": 2892,
    "▁کلیپ": 2893,
    "▁امیدوارم": 2894,
    "▁مساله": 2895,
    "▁استاندارد": 2896,
    "▁جدایی": 2897,
    "▁فال": 2898,
    "کال": 2899,
    "▁مخاطبان": 2900,
    "▁پیرا": 2901,
    "▁مالیاتی": 2902,
    "دست": 2903,
    "▁اتهامات": 2904,
    "▁سیمان": 2905,
    "▁افتاده": 2906,
    "▁علم": 2907,
    "▁شخصیت": 2908,
    "▁بازارهای": 2909,
    "▁سختی": 2910,
    "▁کیفری": 2911,
    "خواهی": 2912,
    "▁علیر": 2913,
    "▁b": 2914,
    "▁نیا": 2915,
    "▁میخ": 2916,
    "▁دیر": 2917,
    "ho": 2918,
    "زده": 2919,
    "▁پارک": 2920,
    "▁دزد": 2921,
    "▁احس": 2922,
    "▁موس": 2923,
    "آزمایی": 2924,
    "▁شم": 2925,
    "70": 2926,
    "▁180": 2927,
    "▁شعار": 2928,
    "▁میگ": 2929,
    "ba": 2930,
    "▁مامور": 2931,
    "تمام": 2932,
    "▁روان": 2933,
    "یدون": 2934,
    "جانبه": 2935,
    "▁تخص": 2936,
    "▁جانباخت": 2937,
    "▁رفاه": 2938,
    "▁عیدفطر": 2939,
    "▁قرضالحسنه": 2940,
    "▁محرمانه": 2941,
    "▁اجماع": 2942,
    "▁معلول": 2943,
    "▁معلوم": 2944,
    "▁نوزدهم": 2945,
    "▁جاسک": 2946,
    "ika": 2947,
    "▁هیچکس": 2948,
    "▁سلطان": 2949,
    "▁فقیر": 2950,
    "▁معنای": 2951,
    "▁کتاب": 2952,
    "▁سهامداران": 2953,
    "▁بازدید": 2954,
    "▁هنگ": 2955,
    "بانی": 2956,
    "▁بزند": 2957,
    "▁سرنشین": 2958,
    "نایب": 2959,
    "▁اصول": 2960,
    "▁بخور": 2961,
    "▁تفاوت": 2962,
    "▁راهداری": 2963,
    "▁ذی": 2964,
    "▁قول": 2965,
    "▁رشته": 2966,
    "▁نکردند": 2967,
    "احیه": 2968,
    "▁پیشرو": 2969,
    "▁بسیج": 2970,
    "▁بودهاند": 2971,
    "▁فرمان": 2972,
    "▁قال": 2973,
    "▁کسر": 2974,
    "▁میرزایی": 2975,
    "▁داشتهاند": 2976,
    "▁عارف": 2977,
    "▁برداشتن": 2978,
    "▁اجباری": 2979,
    "▁کارگاه": 2980,
    "▁بینالملل": 2981,
    "▁طارمی": 2982,
    "▁شرایطی": 2983,
    "▁وزنه": 2984,
    "▁سم": 2985,
    "ونا": 2986,
    "▁خانوادههای": 2987,
    "17": 2988,
    "کاری": 2989,
    "▁خام": 2990,
    "ئل": 2991,
    "دید": 2992,
    "▁مبنای": 2993,
    "▁مرزهای": 2994,
    "▁مشرو": 2995,
    "▁تل": 2996,
    "▁اعلامشده": 2997,
    "ni": 2998,
    "▁کت": 2999,
    "▁کریمی": 3000,
    "▁قلبی": 3001,
    "وار": 3002,
    "▁منته": 3003,
    "میر": 3004,
    "▁پیشرفته": 3005,
    "خواست": 3006,
    "بک": 3007,
    "▁امیدوار": 3008,
    "راق": 3009,
    "▁مراقب": 3010,
    "▁تجار": 3011,
    "پی": 3012,
    "▁یکبار": 3013,
    "ساله": 3014,
    "▁اشتراک": 3015,
    "▁سوئاستفاده": 3016,
    "▁فاجعه": 3017,
    "▁متخلف": 3018,
    "▁مثقال": 3019,
    "▁محسوب": 3020,
    "▁مدافع": 3021,
    "▁کاغذ": 3022,
    "▁بیتکوین": 3023,
    "▁مستعد": 3024,
    "▁مهاجم": 3025,
    "▁شرح": 3026,
    "▁قطار": 3027,
    "▁نانوای": 3028,
    "▁شکوه": 3029,
    "▁یهودی": 3030,
    "▁تالاب": 3031,
    "▁برکنار": 3032,
    "▁خشم": 3033,
    "▁سرانجام": 3034,
    "▁مستقر": 3035,
    "▁ap": 3036,
    "▁نجوم": 3037,
    "▁تایلند": 3038,
    "▁تاجزاده": 3039,
    "▁ایستاد": 3040,
    "▁میبرند": 3041,
    "▁هویت": 3042,
    "▁بارندگی": 3043,
    "▁ترکیب": 3044,
    "▁آزار": 3045,
    "▁سیر": 3046,
    "▁بدانند": 3047,
    "▁چنان": 3048,
    "▁بهانه": 3049,
    "اضی": 3050,
    "▁کاست": 3051,
    "▁تب": 3052,
    "▁C": 3053,
    "▁مراد": 3054,
    "▁بنده": 3055,
    "▁بشر": 3056,
    "▁تروریست": 3057,
    "▁ستاره": 3058,
    "▁ربط": 3059,
    "▁گذر": 3060,
    "▁قهرمان": 3061,
    "آن": 3062,
    "▁دفا": 3063,
    "▁هزارتومان": 3064,
    "▁صعودی": 3065,
    "وق": 3066,
    "زین": 3067,
    "ینکن": 3068,
    "▁پیروز": 3069,
    "▁کنون": 3070,
    "▁مدار": 3071,
    "فراز": 3072,
    "نوعی": 3073,
    "▁آغازشدهاست": 3074,
    "▁چندان": 3075,
    "یص": 3076,
    "رازی": 3077,
    "▁لند": 3078,
    "▁نیستم": 3079,
    "▁وعدههای": 3080,
    "▁سرخ": 3081,
    "▁اسا": 3082,
    "▁شوراها": 3083,
    "شار": 3084,
    "▁نهاده": 3085,
    "▁بال": 3086,
    "هاش": 3087,
    "▁رسیدند": 3088,
    "▁درون": 3089,
    "پور": 3090,
    "▁110": 3091,
    "عنوان": 3092,
    "اردیبهشت": 3093,
    "▁پاس": 3094,
    "▁کشیده": 3095,
    "76": 3096,
    "▁برجامی": 3097,
    "▁تبلیغ": 3098,
    "▁خرم": 3099,
    "▁حر": 3100,
    "▁حاکم": 3101,
    "▁خبرها": 3102,
    "▁اطمینان": 3103,
    "▁انستیتو": 3104,
    "▁تخلیه": 3105,
    "▁تضعیف": 3106,
    "▁خاورمیانه": 3107,
    "▁سانتریفیوژها": 3108,
    "▁مخفی": 3109,
    "▁مطمئن": 3110,
    "▁نمیکنیم": 3111,
    "▁تسلیحات": 3112,
    "▁عظیم": 3113,
    "▁ثروتمند": 3114,
    "▁رسولی": 3115,
    "▁حقیقت": 3116,
    "▁مریخ": 3117,
    "▁میماند": 3118,
    "▁تائید": 3119,
    "▁خیز": 3120,
    "کبیر": 3121,
    "▁جانسون": 3122,
    "▁ملاک": 3123,
    "▁عذر": 3124,
    "▁وحید": 3125,
    "▁موقعیت": 3126,
    "▁عجل": 3127,
    "▁محمدرضا": 3128,
    "▁میبرد": 3129,
    "▁نداشتیم": 3130,
    "▁جزئ": 3131,
    "▁بنیان": 3132,
    "▁پارس": 3133,
    "▁شام": 3134,
    "▁تخلفات": 3135,
    "65": 3136,
    "▁بیا": 3137,
    "سوت": 3138,
    "▁کامنت": 3139,
    "نویس": 3140,
    "▁بشه": 3141,
    "ma": 3142,
    "▁آبادان": 3143,
    "▁دپو": 3144,
    "▁وقف": 3145,
    "▁رستم": 3146,
    "▁تضمین": 3147,
    "▁انه": 3148,
    "▁سدها": 3149,
    "▁جوش": 3150,
    "▁ولایت": 3151,
    "▁اسدی": 3152,
    "▁کر": 3153,
    "▁کاندیداها": 3154,
    "انگ": 3155,
    "▁گیرند": 3156,
    "▁حرا": 3157,
    "▁سیا": 3158,
    "▁ض": 3159,
    "گوی": 3160,
    "بودیم": 3161,
    "sh": 3162,
    "▁اق": 3163,
    "▁k": 3164,
    "رم": 3165,
    "▁باره": 3166,
    "فروش": 3167,
    "▁برادر": 3168,
    "▁دستورالعملها": 3169,
    "▁حج": 3170,
    "▁آرای": 3171,
    "قرار": 3172,
    "طلب": 3173,
    "▁فیلمهای": 3174,
    "ویژه": 3175,
    "▁جنب": 3176,
    "▁74": 3177,
    "▁محاف": 3178,
    "▁چرخ": 3179,
    "پایی": 3180,
    "▁اضطرار": 3181,
    "▁تدابیر": 3182,
    "▁بریتانیا": 3183,
    "▁ضبط": 3184,
    "▁مقطع": 3185,
    "▁پرستیوی": 3186,
    "▁تدوین": 3187,
    "▁خلیل": 3188,
    "▁عوض": 3189,
    "▁سلول": 3190,
    "▁عقب": 3191,
    "▁علائم": 3192,
    "▁فرهاد": 3193,
    "▁ثبات": 3194,
    "▁سرایت": 3195,
    "▁معوق": 3196,
    "▁خاموش": 3197,
    "▁صورتی": 3198,
    "▁جذاب": 3199,
    "▁وکیل": 3200,
    "مپئو": 3201,
    "▁آذر": 3202,
    "▁زیان": 3203,
    "▁کوبا": 3204,
    "▁سبزی": 3205,
    "▁جنای": 3206,
    "▁اهمیت": 3207,
    "▁رضای": 3208,
    "▁حسام": 3209,
    "▁رنگبندی": 3210,
    "▁تفکر": 3211,
    "▁نمایشگاه": 3212,
    "▁بلیت": 3213,
    "▁بهار": 3214,
    "▁میگیرند": 3215,
    "▁مقدمات": 3216,
    "▁شاد": 3217,
    "▁لرزه": 3218,
    "▁مند": 3219,
    "▁فیزیکی": 3220,
    "اوی": 3221,
    "▁فاسد": 3222,
    "▁آنتی": 3223,
    "فن": 3224,
    "▁شیرین": 3225,
    "▁شوم": 3226,
    "AF": 3227,
    "▁برخوردار": 3228,
    "شتم": 3229,
    "▁خن": 3230,
    "▁نشانه": 3231,
    "پاشی": 3232,
    "جات": 3233,
    "▁56": 3234,
    "صاف": 3235,
    "▁طلب": 3236,
    "▁افزوده": 3237,
    "هالی": 3238,
    "▁موسوی": 3239,
    "▁تلاشهای": 3240,
    "▁لب": 3241,
    "▁تکمیل": 3242,
    "داشت": 3243,
    "ناس": 3244,
    "▁قلب": 3245,
    "▁واردشدهاست": 3246,
    "▁اسپ": 3247,
    "ملی": 3248,
    "▁میلی": 3249,
    "یسی": 3250,
    "▁سالگی": 3251,
    "▁منت": 3252,
    "▁38": 3253,
    "▁میشن": 3254,
    "▁250": 3255,
    "▁پایینتر": 3256,
    "دهنده": 3257,
    "خل": 3258,
    "▁نرسیده": 3259,
    "on": 3260,
    "▁فرمانداری": 3261,
    "▁طرفها": 3262,
    "سری": 3263,
    "▁برنده": 3264,
    "2021": 3265,
    "عهد": 3266,
    "صب": 3267,
    "▁کارمند": 3268,
    "اج": 3269,
    "▁اوکراینی": 3270,
    "است": 3271,
    "▁تعهد": 3272,
    "▁پناه": 3273,
    "▁جل": 3274,
    "▁قضا": 3275,
    "ناد": 3276,
    "نش": 3277,
    "▁بش": 3278,
    "▁اندروید": 3279,
    "▁تشویق": 3280,
    "▁تقویم": 3281,
    "▁توصیف": 3282,
    "▁دشوار": 3283,
    "▁پرتغال": 3284,
    "▁آپارات": 3285,
    "▁اموال": 3286,
    "▁ناراحت": 3287,
    "▁ویژگی": 3288,
    "▁لزوم": 3289,
    "▁صحرای": 3290,
    "▁نرسیدهایم": 3291,
    "▁صیاد": 3292,
    "▁دادسرا": 3293,
    "▁همشهری": 3294,
    "▁دیشب": 3295,
    "▁توانایی": 3296,
    "▁نکنیم": 3297,
    "▁نمیخواه": 3298,
    "▁بدانید": 3299,
    "▁قبال": 3300,
    "▁بنادر": 3301,
    "▁جودو": 3302,
    "▁العاده": 3303,
    "▁شرب": 3304,
    "▁نیروگاه": 3305,
    "▁کاراته": 3306,
    "▁نکردهاند": 3307,
    "▁خبرآنلاین": 3308,
    "▁قائم": 3309,
    "سبق": 3310,
    "▁دستکاری": 3311,
    "▁تمرینات": 3312,
    "▁قلم": 3313,
    "اگه": 3314,
    "▁آهنگ": 3315,
    "▁سینو": 3316,
    "▁آقایان": 3317,
    "▁تراب": 3318,
    "▁میتون": 3319,
    "▁الش": 3320,
    "غرب": 3321,
    "▁میخواه": 3322,
    "▁اهم": 3323,
    "▁کاندیداهای": 3324,
    "▁شیمی": 3325,
    "▁کشید": 3326,
    "دایی": 3327,
    "▁باشه": 3328,
    "▁گرفتهاند": 3329,
    "▁نشوند": 3330,
    "▁رود": 3331,
    "▁میدانیم": 3332,
    "13": 3333,
    "اکی": 3334,
    "▁وکلا": 3335,
    "▁فرم": 3336,
    "یائی": 3337,
    "عرض": 3338,
    "▁رفتند": 3339,
    "▁حوزههای": 3340,
    "ثب": 3341,
    "▁دادهشدهاست": 3342,
    "▁فرماندار": 3343,
    "▁جنجال": 3344,
    "▁ماینر": 3345,
    "▁گور": 3346,
    "قی": 3347,
    "ظاهرا": 3348,
    "▁میخوان": 3349,
    "▁کاربری": 3350,
    "▁کیان": 3351,
    "▁نشدن": 3352,
    "▁نیستیم": 3353,
    "خواری": 3354,
    "▁سط": 3355,
    "▁مطهری": 3356,
    "ظت": 3357,
    "▁حرفها": 3358,
    "▁صحن": 3359,
    "▁پاسخگوی": 3360,
    "▁چی": 3361,
    "حجاب": 3362,
    "امبر": 3363,
    "نت": 3364,
    "▁یو": 3365,
    "▁ساختمانهای": 3366,
    "نام": 3367,
    "▁کریم": 3368,
    "▁بدل": 3369,
    "▁84": 3370,
    "باب": 3371,
    "18": 3372,
    "خیر": 3373,
    "▁قهرمانی": 3374,
    "ئی": 3375,
    "▁مکر": 3376,
    "مستقیم": 3377,
    "مک": 3378,
    "▁دادهبود": 3379,
    "الت": 3380,
    "▁چالش": 3381,
    "واشی": 3382,
    "▁دانشآموز": 3383,
    "▁الد": 3384,
    "▁پژوهش": 3385,
    "گانه": 3386,
    "▁مسلم": 3387,
    "▁حیوان": 3388,
    "▁جابجا": 3389,
    "بودم": 3390,
    "خره": 3391,
    "▁میگفت": 3392,
    "سعود": 3393,
    "▁پژو": 3394,
    "▁آپارتمان": 3395,
    "▁اورانیوم": 3396,
    "▁بالستیک": 3397,
    "▁ترجیح": 3398,
    "▁تعریف": 3399,
    "▁حقوقبشر": 3400,
    "▁قرائت": 3401,
    "▁متوالی": 3402,
    "▁مقاطع": 3403,
    "▁هوشمند": 3404,
    "▁چالوس": 3405,
    "▁گنبد": 3406,
    "▁گوسفند": 3407,
    "stores": 3408,
    "▁اشتغال": 3409,
    "▁بیسابقه": 3410,
    "▁صاعقه": 3411,
    "▁یوتیوب": 3412,
    "▁زباله": 3413,
    "▁میافتد": 3414,
    "▁ناظر": 3415,
    "▁غلط": 3416,
    "▁غلام": 3417,
    "▁تعاون": 3418,
    "▁عبارت": 3419,
    "▁دستاورد": 3420,
    "▁هموطنان": 3421,
    "▁اکبر": 3422,
    "▁سراغ": 3423,
    "▁معروف": 3424,
    "▁بلوکهشده": 3425,
    "بیعی": 3426,
    "▁بویر": 3427,
    "id": 3428,
    "▁دائم": 3429,
    "▁غیرمجاز": 3430,
    "▁رهبرانقلاب": 3431,
    "▁محبوب": 3432,
    "▁تلقی": 3433,
    "▁ایلام": 3434,
    "▁تیرماه": 3435,
    "▁کشتار": 3436,
    "▁میزنند": 3437,
    "▁بزنند": 3438,
    "▁شفافیت": 3439,
    "▁پارسال": 3440,
    "▁مهرماه": 3441,
    "▁خلق": 3442,
    "▁کش": 3443,
    "گرای": 3444,
    "▁روستایی": 3445,
    "▁مرگبار": 3446,
    "▁مازاد": 3447,
    "▁ایفا": 3448,
    "ضه": 3449,
    "▁بخشنامه": 3450,
    "▁جنایت": 3451,
    "وبرق": 3452,
    "▁پروانه": 3453,
    "▁ویلا": 3454,
    "▁ابلاغیه": 3455,
    "▁اتریش": 3456,
    "▁راهکار": 3457,
    "▁اع": 3458,
    "▁زور": 3459,
    "▁انفجارهای": 3460,
    "▁88": 3461,
    "▁مبت": 3462,
    "▁کتب": 3463,
    "▁آرا": 3464,
    "▁تعیینشدهاست": 3465,
    "▁خبرهای": 3466,
    "▁چهل": 3467,
    "▁گونهای": 3468,
    "▁وحشت": 3469,
    "زار": 3470,
    "▁انجامشده": 3471,
    "▁ساختار": 3472,
    "سالی": 3473,
    "▁راههای": 3474,
    "▁گورخرها": 3475,
    "▁43": 3476,
    "گیل": 3477,
    "▁دولتها": 3478,
    "▁پشتیبانی": 3479,
    "گانی": 3480,
    "متر": 3481,
    "یجان": 3482,
    "▁انصاری": 3483,
    "▁قار": 3484,
    "▁نیک": 3485,
    "▁استخوان": 3486,
    "▁فرهنگ": 3487,
    "50": 3488,
    "▁ناوگ": 3489,
    "▁صحبتهای": 3490,
    "▁نوساز": 3491,
    "▁جن": 3492,
    "▁دنیای": 3493,
    "امت": 3494,
    "▁تاریخی": 3495,
    "▁کنگ": 3496,
    "▁مج": 3497,
    "زدن": 3498,
    "زمینی": 3499,
    "80": 3500,
    "▁تنشها": 3501,
    "▁مدرس": 3502,
    "زیت": 3503,
    "▁44": 3504,
    "نشان": 3505,
    "▁تکمیلی": 3506,
    "سیر": 3507,
    "ad": 3508,
    "▁تضمینی": 3509,
    "غر": 3510,
    "لت": 3511,
    "ویز": 3512,
    "60": 3513,
    "شدهرا": 3514,
    "▁مهندس": 3515,
    "V": 3516,
    "▁دستگاهها": 3517,
    "خلاف": 3518,
    "فوری": 3519,
    "▁تاز": 3520,
    "▁شهرستانها": 3521,
    "▁p": 3522,
    "کدام": 3523,
    "▁سیم": 3524,
    "▁ضر": 3525,
    "▁قضائی": 3526,
    "هایشان": 3527,
    "▁دزدی": 3528,
    "▁72": 3529,
    "▁پولی": 3530,
    "▁کارخانهها": 3531,
    "▁انس": 3532,
    "86": 3533,
    "77": 3534,
    "▁نگار": 3535,
    "صوب": 3536,
    "طر": 3537,
    "سلمان": 3538,
    "▁شانه": 3539,
    "▁عزا": 3540,
    "جویی": 3541,
    "▁اهدا": 3542,
    "▁تجاوز": 3543,
    "▁parsine": 3544,
    "▁آژیر": 3545,
    "▁بختیاری": 3546,
    "▁بیطرف": 3547,
    "▁تصریح": 3548,
    "▁حریرچی": 3549,
    "▁حناچی": 3550,
    "▁رستوران": 3551,
    "▁لحظات": 3552,
    "▁محسوس": 3553,
    "▁مطبوعات": 3554,
    "▁ضرورت": 3555,
    "▁مطلوب": 3556,
    "▁موظف": 3557,
    "▁نمیکنند": 3558,
    "▁واسطه": 3559,
    "▁حاتمی": 3560,
    "▁مرجع": 3561,
    "▁ضامن": 3562,
    "▁صفحات": 3563,
    "▁محرز": 3564,
    "▁پورتو": 3565,
    "▁اعطا": 3566,
    "▁محاکمه": 3567,
    "▁تشری": 3568,
    "▁مشهور": 3569,
    "▁عزت": 3570,
    "▁اعتراف": 3571,
    "▁برعهده": 3572,
    "▁کلینیک": 3573,
    "▁استادیوم": 3574,
    "▁حقیقی": 3575,
    "▁ریشه": 3576,
    "▁فضانورد": 3577,
    "▁استیضاح": 3578,
    "▁وزنهبرداری": 3579,
    "▁لرزاند": 3580,
    "▁پاداش": 3581,
    "▁سیگار": 3582,
    "▁مسیح": 3583,
    "▁1398": 3584,
    "▁وخیم": 3585,
    "▁532": 3586,
    "▁میگذر": 3587,
    "▁آنتونی": 3588,
    "▁میروند": 3589,
    "▁نباشند": 3590,
    "▁تصور": 3591,
    "راحل": 3592,
    "▁شویم": 3593,
    "▁فقیه": 3594,
    "▁بگیریم": 3595,
    "▁09": 3596,
    "فضل": 3597,
    "▁نقره": 3598,
    "راث": 3599,
    "in": 3600,
    "▁اصغر": 3601,
    "▁بدهند": 3602,
    "یکس": 3603,
    "▁خروجی": 3604,
    "▁واتس": 3605,
    "نظیر": 3606,
    "▁مطلب": 3607,
    "▁گیاهان": 3608,
    "فاد": 3609,
    "▁68": 3610,
    "▁میگیر": 3611,
    "▁124": 3612,
    "▁عمده": 3613,
    "▁53": 3614,
    "▁پیکر": 3615,
    "سن": 3616,
    "▁دم": 3617,
    "▁تپه": 3618,
    "▁گره": 3619,
    "سنجی": 3620,
    "▁جامع": 3621,
    "باش": 3622,
    "▁انت": 3623,
    "▁سق": 3624,
    "▁نموده": 3625,
    "▁36": 3626,
    "پرس": 3627,
    "▁مغ": 3628,
    "▁عزیزان": 3629,
    "▁کشت": 3630,
    "▁رانت": 3631,
    "▁میداند": 3632,
    "▁مستمر": 3633,
    "▁گذاشتن": 3634,
    "میه": 3635,
    "▁باقر": 3636,
    "▁داراییها": 3637,
    "سوی": 3638,
    "▁بیکار": 3639,
    "▁عمان": 3640,
    "شدهبر": 3641,
    "▁گرفتهشدهاست": 3642,
    "▁معمول": 3643,
    "▁فور": 3644,
    "▁خواستههای": 3645,
    "▁N": 3646,
    "▁00": 3647,
    "ارجه": 3648,
    "▁میکرده": 3649,
    "دنبال": 3650,
    "▁انگیز": 3651,
    "▁کالیفرنیای": 3652,
    "▁گفتگوها": 3653,
    "▁شغل": 3654,
    "▁پزشک": 3655,
    "97": 3656,
    "▁شهدا": 3657,
    "▁داوری": 3658,
    "at": 3659,
    "▁الا": 3660,
    "▁دادیم": 3661,
    "▁جعلی": 3662,
    "▁غذای": 3663,
    "گرفتگی": 3664,
    "اسی": 3665,
    "▁شدگان": 3666,
    "نازل": 3667,
    "تید": 3668,
    "انتری": 3669,
    "▁ظاهر": 3670,
    "فرج": 3671,
    "▁سویه": 3672,
    "▁کلان": 3673,
    "▁رمزارز": 3674,
    "ثی": 3675,
    "پک": 3676,
    "مال": 3677,
    "▁دف": 3678,
    "▁معمولی": 3679,
    "▁رستمی": 3680,
    "سخ": 3681,
    "▁انگیزه": 3682,
    "▁کرو": 3683,
    "▁مدیریتی": 3684,
    "غل": 3685,
    "خودرو": 3686,
    "هلال": 3687,
    "دیگر": 3688,
    "سریع": 3689,
    "▁آموز": 3690,
    "سبوک": 3691,
    "▁شدیم": 3692,
    "▁سفره": 3693,
    "▁نزد": 3694,
    "خدای": 3695,
    "▁فق": 3696,
    "بیا": 3697,
    "▁موافق": 3698,
    "▁تلاشها": 3699,
    "کام": 3700,
    "شدهباشد": 3701,
    "▁میداد": 3702,
    "▁97": 3703,
    "▁نعم": 3704,
    "▁AAAAA": 3705,
    "یراد": 3706,
    "▁ذخ": 3707,
    "▁آرژانتین": 3708,
    "▁آسوشیتدپرس": 3709,
    "▁اخطار": 3710,
    "▁اولیانوف": 3711,
    "▁تجدید": 3712,
    "▁جشنواره": 3713,
    "▁حجتالاسلام": 3714,
    "▁دموکرات": 3715,
    "▁لازمالاجرا": 3716,
    "▁مکزیک": 3717,
    "▁نوشیدن": 3718,
    "▁پذیرفته": 3719,
    "▁پنتاگون": 3720,
    "▁پیچیده": 3721,
    "▁ژنرال": 3722,
    "▁کرباسچی": 3723,
    "▁طعام": 3724,
    "▁منفجر": 3725,
    "▁mehr": 3726,
    "▁لرستان": 3727,
    "▁گروگان": 3728,
    "▁قرص": 3729,
    "▁آرزو": 3730,
    "▁im": 3731,
    "▁دهقان": 3732,
    "▁مجتب": 3733,
    "▁متعدد": 3734,
    "▁شوهر": 3735,
    "▁تعزیر": 3736,
    "▁غرضی": 3737,
    "▁تاکسی": 3738,
    "▁معدنچی": 3739,
    "▁کلانشهر": 3740,
    "▁حدادی": 3741,
    "est": 3742,
    "▁بسم": 3743,
    "▁دیابت": 3744,
    "▁تندرو": 3745,
    "رئوف": 3746,
    "▁دستمزد": 3747,
    "aba": 3748,
    "▁خداوند": 3749,
    "خبر": 3750,
    "▁جذ": 3751,
    "▁چاپ": 3752,
    "▁مدبر": 3753,
    "▁مراکش": 3754,
    "▁شایعات": 3755,
    "▁نمیدانم": 3756,
    "▁شانس": 3757,
    "▁کنو": 3758,
    "▁کانادا": 3759,
    "▁حفر": 3760,
    "▁140": 3761,
    "صاب": 3762,
    "▁شایعه": 3763,
    "▁بشار": 3764,
    "▁کرم": 3765,
    "▁برانگیز": 3766,
    "▁فتا": 3767,
    "▁ثانیه": 3768,
    "▁پرده": 3769,
    "▁علنی": 3770,
    "▁نقلیه": 3771,
    "▁کوو": 3772,
    "▁یوف": 3773,
    "کستان": 3774,
    "▁خوانده": 3775,
    "دل": 3776,
    "▁معده": 3777,
    "▁الکل": 3778,
    "▁پوشید": 3779,
    "▁فقر": 3780,
    "▁دیوان": 3781,
    "اقات": 3782,
    "ونالد": 3783,
    "▁ماند": 3784,
    "▁جانب": 3785,
    "▁منتشرشدهاست": 3786,
    "▁ضربت": 3787,
    "▁زر": 3788,
    "پایه": 3789,
    "▁موسسه": 3790,
    "▁پیر": 3791,
    "▁آید": 3792,
    "▁شبیه": 3793,
    "باد": 3794,
    "▁مایک": 3795,
    "هاست": 3796,
    "▁پیرو": 3797,
    "▁شهریار": 3798,
    "▁درخت": 3799,
    "▁بده": 3800,
    "▁مافیا": 3801,
    "▁پدید": 3802,
    "لسی": 3803,
    "▁فل": 3804,
    "▁امدادگر": 3805,
    "یتد": 3806,
    "قص": 3807,
    "vi": 3808,
    "▁الی": 3809,
    "▁مجید": 3810,
    "اث": 3811,
    "tt": 3812,
    "▁رایزنیها": 3813,
    "▁پاسخگو": 3814,
    "قر": 3815,
    "▁طلایی": 3816,
    "▁تقاضای": 3817,
    "▁کولر": 3818,
    "▁خوراکی": 3819,
    "▁رم": 3820,
    "فار": 3821,
    "▁73": 3822,
    "▁شبها": 3823,
    "▁میرس": 3824,
    "▁برگ": 3825,
    "امد": 3826,
    "▁ژ": 3827,
    "▁سوار": 3828,
    "▁تعیینشده": 3829,
    "23": 3830,
    "عاد": 3831,
    "▁هرچ": 3832,
    "افیای": 3833,
    "▁آرام": 3834,
    "نفس": 3835,
    "25": 3836,
    "▁شکار": 3837,
    "▁همهگیر": 3838,
    "نل": 3839,
    "▁135": 3840,
    "پرسی": 3841,
    "آنلاین": 3842,
    "▁بیگ": 3843,
    "▁نش": 3844,
    "▁ریو": 3845,
    "ائم": 3846,
    "▁نمایند": 3847,
    "▁بسیجی": 3848,
    "▁متقاضی": 3849,
    "▁ساعته": 3850,
    "▁نشری": 3851,
    "▁مهاجر": 3852,
    "▁رحم": 3853,
    "▁تسلی": 3854,
    "▁شبه": 3855,
    "▁شفا": 3856,
    "منستان": 3857,
    "انضباطی": 3858,
    "▁اسراییل": 3859,
    "▁اضطراب": 3860,
    "▁شگفت": 3861,
    "▁ضوابط": 3862,
    "▁محوطه": 3863,
    "▁مملکت": 3864,
    "▁ژوئن": 3865,
    "▁یخچال": 3866,
    "▁بختگان": 3867,
    "▁پروفورم": 3868,
    "▁طوفان": 3869,
    "▁نصف": 3870,
    "▁ارشاد": 3871,
    "ظلم": 3872,
    "▁جایگزین": 3873,
    "▁سناریو": 3874,
    "▁فیفا": 3875,
    "▁قضیه": 3876,
    "▁بگوید": 3877,
    "▁رویکرد": 3878,
    "▁مقصر": 3879,
    "▁ادعیه": 3880,
    "▁ابتکار": 3881,
    "▁تانکر": 3882,
    "▁افسردگی": 3883,
    "▁فلزی": 3884,
    "▁جشن": 3885,
    "▁قحط": 3886,
    "▁فتح": 3887,
    "▁دندان": 3888,
    "▁عبدال": 3889,
    "▁اقبال": 3890,
    "▁برانکو": 3891,
    "▁ردیف": 3892,
    "▁سازندگی": 3893,
    "▁گرامی": 3894,
    "▁پرخطر": 3895,
    "▁جنتی": 3896,
    "▁عصبانی": 3897,
    "▁روانشناس": 3898,
    "▁متقابل": 3899,
    "▁استوریهای": 3900,
    "▁نشدهاند": 3901,
    "▁خرج": 3902,
    "فزون": 3903,
    "▁مورخ": 3904,
    "▁بگیرید": 3905,
    "▁سبک": 3906,
    "▁انبار": 3907,
    "▁93": 3908,
    "▁حاکمیت": 3909,
    "▁2015": 3910,
    "▁خرس": 3911,
    "▁خودرویی": 3912,
    "▁فائ": 3913,
    "▁مقداری": 3914,
    "▁235": 3915,
    "▁هیب": 3916,
    "▁رادیو": 3917,
    "▁نداشتن": 3918,
    "▁آزمایشگاه": 3919,
    "▁مزار": 3920,
    "▁فاش": 3921,
    "▁مناظره": 3922,
    "▁گویا": 3923,
    "▁احتیاط": 3924,
    "▁سهلا": 3925,
    "▁فرق": 3926,
    "▁رنج": 3927,
    "▁95": 3928,
    "▁بگیران": 3929,
    "▁پیج": 3930,
    "داع": 3931,
    "▁دوگانه": 3932,
    "▁تاج": 3933,
    "▁آفت": 3934,
    "▁میدهم": 3935,
    "▁شیشه": 3936,
    "▁صفوی": 3937,
    "▁خواهیمبود": 3938,
    "▁105": 3939,
    "نورد": 3940,
    "▁دخترانه": 3941,
    "40": 3942,
    "مزه": 3943,
    "▁شکاف": 3944,
    "▁پایدار": 3945,
    "▁سالن": 3946,
    "▁فتو": 3947,
    "▁عده": 3948,
    "شب": 3949,
    "▁موجودی": 3950,
    "▁هنرمندان": 3951,
    "▁دارویی": 3952,
    "▁معترضان": 3953,
    "▁صادقی": 3954,
    "▁نیازمندان": 3955,
    "▁قوی": 3956,
    "▁الگو": 3957,
    "ختم": 3958,
    "16": 3959,
    "▁تاجر": 3960,
    "▁طب": 3961,
    "▁کس": 3962,
    "▁زدند": 3963,
    "▁89": 3964,
    "شکنی": 3965,
    "▁زال": 3966,
    "▁پاد": 3967,
    "15": 3968,
    "▁بیستم": 3969,
    "▁الف": 3970,
    "▁مهمتر": 3971,
    "▁آه": 3972,
    "▁ثبتشدهاست": 3973,
    "▁الدین": 3974,
    "نفر": 3975,
    "شروع": 3976,
    "▁گرفتهشده": 3977,
    "▁میلیاردر": 3978,
    "▁w": 3979,
    "▁52": 3980,
    "▁برون": 3981,
    "▁مرا": 3982,
    "زنی": 3983,
    "▁تقاضا": 3984,
    "▁مطهر": 3985,
    "▁170": 3986,
    "▁هماهنگ": 3987,
    "▁آفریقا": 3988,
    "▁اشت": 3989,
    "یزی": 3990,
    "▁ناسا": 3991,
    "چین": 3992,
    "ome": 3993,
    "▁کمر": 3994,
    "▁ماندن": 3995,
    "▁مایه": 3996,
    "▁اصلاحی": 3997,
    "▁سواری": 3998,
    "اهد": 3999,
    "▁نامدار": 4000,
    "▁کالاها": 4001,
    "▁آزاده": 4002,
    "لیک": 4003,
    "▁هفتم": 4004,
    "بخشی": 4005,
    "75": 4006,
    "لزم": 4007,
    "وک": 4008,
    "▁عاشق": 4009,
    "یاری": 4010,
    "لند": 4011,
    "نوی": 4012,
    "دستی": 4013,
    "▁تومانبود": 4014,
    "▁غا": 4015,
    "▁فروشگاهها": 4016,
    "احمد": 4017,
    "تماس": 4018,
    "یافته": 4019,
    "▁خواندن": 4020,
    "ou": 4021,
    "▁ماهواره": 4022,
    "▁محا": 4023,
    "▁فو": 4024,
    "10": 4025,
    "▁نوجوان": 4026,
    "▁نویس": 4027,
    "▁عل": 4028,
    "▁مغازه": 4029,
    "▁میکنن": 4030,
    "▁زنجیره": 4031,
    "▁بنیا": 4032,
    "▁پرو": 4033,
    "تلاشی": 4034,
    "▁نبو": 4035,
    "▁مخا": 4036,
    "▁مختل": 4037,
    "صره": 4038,
    "الرحمن": 4039,
    "▁استعلام": 4040,
    "▁مرخص": 4041,
    "▁ارجاع": 4042,
    "▁بپیوندی": 4043,
    "▁خوشبخت": 4044,
    "▁رفسنجانی": 4045,
    "▁شریعتمداری": 4046,
    "▁صندلی": 4047,
    "▁متناسب": 4048,
    "▁محاسبه": 4049,
    "▁منهدم": 4050,
    "▁ویکتوریا": 4051,
    "▁پراکنده": 4052,
    "▁ایرلند": 4053,
    "▁جعفر": 4054,
    "▁مگسها": 4055,
    "▁پارلمان": 4056,
    "▁کالبد": 4057,
    "▁گزینش": 4058,
    "▁ببینیم": 4059,
    "▁تظاهرات": 4060,
    "▁پاندمی": 4061,
    "▁میآورند": 4062,
    "▁النص": 4063,
    "▁ریسک": 4064,
    "▁رکود": 4065,
    "radi": 4066,
    "▁بگذارد": 4067,
    "▁تابعیت": 4068,
    "▁مریوان": 4069,
    "▁بگذارید": 4070,
    "▁تولد": 4071,
    "▁حیفا": 4072,
    "▁تاسف": 4073,
    "▁دردناک": 4074,
    "▁سیبزمینی": 4075,
    "▁نداره": 4076,
    "▁ابزار": 4077,
    "▁جسم": 4078,
    "▁خیال": 4079,
    "▁سایه": 4080,
    "▁گواهی": 4081,
    "▁نیامد": 4082,
    "▁عروس": 4083,
    "▁محض": 4084,
    "▁چاه": 4085,
    "▁پلاس": 4086,
    "▁فلج": 4087,
    "▁پرویز": 4088,
    "▁بیهوش": 4089,
    "▁هندیجان": 4090,
    "▁مدرن": 4091,
    "اندیش": 4092,
    "▁مگا": 4093,
    "▁مربی": 4094,
    "▁اشکال": 4095,
    "▁مقدم": 4096,
    "▁سپر": 4097,
    "حقق": 4098,
    "▁مبادل": 4099,
    "رجل": 4100,
    "ئول": 4101,
    "▁کرانه": 4102,
    "زتاب": 4103,
    "▁550": 4104,
    "▁ماندهاند": 4105,
    "▁باستانی": 4106,
    "▁گیر": 4107,
    "▁مهاجرت": 4108,
    "اکس": 4109,
    "گردان": 4110,
    "▁پرسید": 4111,
    "▁دوجانبه": 4112,
    "▁تئ": 4113,
    "▁تمامشده": 4114,
    "▁اخلاق": 4115,
    "▁کلمه": 4116,
    "▁130": 4117,
    "▁حجت": 4118,
    "▁دامپزشکی": 4119,
    "▁شیب": 4120,
    "صلاح": 4121,
    "▁چار": 4122,
    "▁54": 4123,
    "▁امضای": 4124,
    "▁نمادهای": 4125,
    "▁نابود": 4126,
    "▁سینا": 4127,
    "▁واردکننده": 4128,
    "خانه": 4129,
    "قاعد": 4130,
    "▁صالح": 4131,
    "▁جولا": 4132,
    "▁بردن": 4133,
    "▁بدهیم": 4134,
    "▁مسلمانان": 4135,
    "▁82": 4136,
    "ئین": 4137,
    "▁مواردی": 4138,
    "مادی": 4139,
    "▁جمهوریخواه": 4140,
    "▁اردوی": 4141,
    "▁بارشهای": 4142,
    "▁صب": 4143,
    "▁یگان": 4144,
    "▁مهندسی": 4145,
    "دگی": 4146,
    "▁خواهی": 4147,
    "▁دانسته": 4148,
    "رانه": 4149,
    "▁برد": 4150,
    "▁شن": 4151,
    "وظ": 4152,
    "▁گزارششدهاست": 4153,
    "31": 4154,
    "▁سرد": 4155,
    "▁گرانیها": 4156,
    "▁زمینهای": 4157,
    "▁ارو": 4158,
    "12": 4159,
    "▁خیابانها": 4160,
    "▁خرا": 4161,
    "خواه": 4162,
    "▁رافا": 4163,
    "▁اشغال": 4164,
    "▁هنری": 4165,
    "▁برآورد": 4166,
    "▁شان": 4167,
    "▁قراردادهای": 4168,
    "▁پیشک": 4169,
    "▁حتم": 4170,
    "▁سریعتر": 4171,
    "▁مومن": 4172,
    "▁گوا": 4173,
    "78": 4174,
    "▁دغدغه": 4175,
    "زاد": 4176,
    "▁قایقها": 4177,
    "▁ویدیو": 4178,
    "▁هنر": 4179,
    "▁معیارها": 4180,
    "lu": 4181,
    "▁فرصتهای": 4182,
    "ندگان": 4183,
    "▁داور": 4184,
    "رایه": 4185,
    "▁میبین": 4186,
    "▁یمنی": 4187,
    "نگاری": 4188,
    "عان": 4189,
    "▁محدودیتها": 4190,
    "ستین": 4191,
    "▁همکاران": 4192,
    "انگیز": 4193,
    "▁تیمش": 4194,
    "▁ایل": 4195,
    "▁هنرمند": 4196,
    "تپه": 4197,
    "دولتی": 4198,
    "مهدی": 4199,
    "▁مدتها": 4200,
    "▁ستار": 4201,
    "▁خوا": 4202,
    "▁نماد": 4203,
    "آفرین": 4204,
    "▁عفو": 4205,
    "تجهیز": 4206,
    "▁آشپز": 4207,
    "▁آکسیوس": 4208,
    "▁اجساد": 4209,
    "▁اسلحه": 4210,
    "▁الرحیم": 4211,
    "▁باقیمانده": 4212,
    "▁تذکر": 4213,
    "▁شلوغ": 4214,
    "▁شیعیان": 4215,
    "▁مظلوم": 4216,
    "▁هکتار": 4217,
    "▁یوزپلنگ": 4218,
    "▁یکطرفه": 4219,
    "▁1442": 4220,
    "▁انحصار": 4221,
    "▁توطئه": 4222,
    "▁موکول": 4223,
    "▁نابینایان": 4224,
    "▁همسایه": 4225,
    "▁پاساژ": 4226,
    "▁لطف": 4227,
    "▁ثمر": 4228,
    "▁رحیم": 4229,
    "▁پهلو": 4230,
    "▁میآورد": 4231,
    "▁تحمیل": 4232,
    "▁دیسک": 4233,
    "▁انگشت": 4234,
    "▁منصور": 4235,
    "▁مکلف": 4236,
    "▁سپت": 4237,
    "▁مفید": 4238,
    "▁رانندگی": 4239,
    "▁عادل": 4240,
    "▁جمعآوری": 4241,
    "▁اراده": 4242,
    "▁بهرهمند": 4243,
    "▁ناامن": 4244,
    "▁سلیمی": 4245,
    "▁مالباختگان": 4246,
    "▁فریاد": 4247,
    "▁قانع": 4248,
    "▁سیدالشهدا": 4249,
    "▁نوبخت": 4250,
    "▁پرستار": 4251,
    "estan": 4252,
    "▁افتخار": 4253,
    "Ww": 4254,
    "▁یادداشت": 4255,
    "▁غریب": 4256,
    "▁لیتر": 4257,
    "احترام": 4258,
    "▁متعهد": 4259,
    "▁میرساند": 4260,
    "▁بزنید": 4261,
    "آویو": 4262,
    "▁تردید": 4263,
    "▁فرمول": 4264,
    "▁نمیدانیم": 4265,
    "▁میکش": 4266,
    "▁بزنیم": 4267,
    "▁تیتر": 4268,
    "▁لودر": 4269,
    "▁نذر": 4270,
    "▁پوست": 4271,
    "▁ویدیوی": 4272,
    "▁فیلمبرداری": 4273,
    "▁ورزشکار": 4274,
    "▁بهادار": 4275,
    "▁خسر": 4276,
    "▁جمعبندی": 4277,
    "▁پاریس": 4278,
    "▁پلنگ": 4279,
    "▁خص": 4280,
    "▁میگیریم": 4281,
    "▁میانداز": 4282,
    "om": 4283,
    "▁سرمای": 4284,
    "▁بزرگراه": 4285,
    "▁ماهوارهای": 4286,
    "هاب": 4287,
    "▁اندک": 4288,
    "67": 4289,
    "▁بیرو": 4290,
    "▁بیگان": 4291,
    "▁نواب": 4292,
    "▁جابجایی": 4293,
    "▁اج": 4294,
    "بولان": 4295,
    "▁بوک": 4296,
    "▁ببخش": 4297,
    "▁بردند": 4298,
    "▁نوجوانان": 4299,
    "▁کاشان": 4300,
    "▁حلق": 4301,
    "طال": 4302,
    "▁بلد": 4303,
    "▁گردش": 4304,
    "▁اصولگرای": 4305,
    "▁نخواهدبود": 4306,
    "▁عرض": 4307,
    "▁کشتن": 4308,
    "وات": 4309,
    "▁برگرد": 4310,
    "ندر": 4311,
    "▁نظرات": 4312,
    "▁ایرانشهر": 4313,
    "▁آف": 4314,
    "▁رهبران": 4315,
    "▁رسانده": 4316,
    "▁گرفتیم": 4317,
    "▁چهرههای": 4318,
    "العمل": 4319,
    "▁وسیله": 4320,
    "▁اشک": 4321,
    "▁آزمایی": 4322,
    "ستند": 4323,
    "▁عاشقان": 4324,
    "باره": 4325,
    "▁آسیایی": 4326,
    "اکان": 4327,
    "▁مقر": 4328,
    "▁میدانم": 4329,
    "▁پرای": 4330,
    "▁بگیر": 4331,
    "▁رازی": 4332,
    "▁تحلیلگر": 4333,
    "▁دستک": 4334,
    "▁پولهای": 4335,
    "▁آنهاست": 4336,
    "▁ریز": 4337,
    "▁سار": 4338,
    "رست": 4339,
    "رطو": 4340,
    "▁پهپادها": 4341,
    "لایت": 4342,
    "▁قایق": 4343,
    "▁نبودن": 4344,
    "24": 4345,
    "▁نرسید": 4346,
    "ختری": 4347,
    "▁دادم": 4348,
    "▁جعل": 4349,
    "▁پیگیر": 4350,
    "▁A": 4351,
    "لاس": 4352,
    "▁رغ": 4353,
    "▁کالیفرنیا": 4354,
    "▁مبنا": 4355,
    "▁59": 4356,
    "▁درپی": 4357,
    "▁ادعاها": 4358,
    "▁بازرگان": 4359,
    "▁y": 4360,
    "▁بدیه": 4361,
    "▁تکه": 4362,
    "تیو": 4363,
    "▁ماینرها": 4364,
    "▁کاربر": 4365,
    "وین": 4366,
    "▁قل": 4367,
    "▁نس": 4368,
    "▁مینو": 4369,
    "▁نشده": 4370,
    "رود": 4371,
    "دلی": 4372,
    "وانه": 4373,
    "قصد": 4374,
    "▁سرم": 4375,
    "▁سد": 4376,
    "▁بستگ": 4377,
    "▁خانوادهها": 4378,
    "▁آبان": 4379,
    "کامنت": 4380,
    "میلیارد": 4381,
    "مردان": 4382,
    "دریای": 4383,
    "▁حوزهها": 4384,
    "▁مبارز": 4385,
    "▁کارگزار": 4386,
    "▁نرم": 4387,
    "▁مکه": 4388,
    "▁نشون": 4389,
    "ig": 4390,
    "▁انتقا": 4391,
    "خزن": 4392,
    "ئیل": 4393,
    "▁بسا": 4394,
    "حریم": 4395,
    "فای": 4396,
    "▁افغان": 4397,
    "▁بسکتبال": 4398,
    "afe": 4399,
    "▁آلرژی": 4400,
    "▁استرالیا": 4401,
    "▁اعتقاد": 4402,
    "▁امورخارجه": 4403,
    "▁تکتیرانداز": 4404,
    "▁صابرین": 4405,
    "▁عارضه": 4406,
    "▁فرآیند": 4407,
    "▁مجاهدان": 4408,
    "▁مرحوم": 4409,
    "▁مکتوب": 4410,
    "▁وظایف": 4411,
    "▁پرهیز": 4412,
    "▁ارقام": 4413,
    "▁ترجمه": 4414,
    "▁تعادل": 4415,
    "▁تفاهم": 4416,
    "▁مزرعه": 4417,
    "▁مکعب": 4418,
    "▁نشاط": 4419,
    "▁گشایش": 4420,
    "▁آشوب": 4421,
    "▁احراز": 4422,
    "▁دمشق": 4423,
    "▁سوابق": 4424,
    "▁میکنید": 4425,
    "▁نمیرسد": 4426,
    "▁اثبات": 4427,
    "▁اقلام": 4428,
    "▁کلمبیا": 4429,
    "▁2022": 4430,
    "▁تشکر": 4431,
    "▁توجیه": 4432,
    "▁متولد": 4433,
    "▁مجله": 4434,
    "▁پنهان": 4435,
    "▁برطرف": 4436,
    "▁شعله": 4437,
    "▁خالد": 4438,
    "▁کمپین": 4439,
    "▁طحان": 4440,
    "▁متعاقب": 4441,
    "▁مقطوع": 4442,
    "ove": 4443,
    "▁ولادی": 4444,
    "▁راهحل": 4445,
    "▁اختلاس": 4446,
    "▁باغمل": 4447,
    "▁تریاک": 4448,
    "▁علامت": 4449,
    "▁قشر": 4450,
    "▁ریختن": 4451,
    "▁ندهید": 4452,
    "▁ابهام": 4453,
    "▁ناپدید": 4454,
    "▁ترسناک": 4455,
    "▁دلاور": 4456,
    "▁باطل": 4457,
    "▁بماند": 4458,
    "▁قضاوت": 4459,
    "▁درخشان": 4460,
    "▁اردوگاه": 4461,
    "قطبی": 4462,
    "▁پالایشگاه": 4463,
    "SC": 4464,
    "▁ناکام": 4465,
    "▁غیرحضوری": 4466,
    "▁علوی": 4467,
    "▁پیمانکار": 4468,
    "▁یادآور": 4469,
    "▁مهربانی": 4470,
    "▁کشیدن": 4471,
    "▁شیوهنامه": 4472,
    "▁عفونی": 4473,
    "▁کشاند": 4474,
    "▁کارگردانی": 4475,
    "▁سام": 4476,
    "▁بزرگوار": 4477,
    "▁حوثیها": 4478,
    "▁خرابکار": 4479,
    "▁سرخپو": 4480,
    "▁آسان": 4481,
    "▁فدای": 4482,
    "▁ردیابی": 4483,
    "▁موتاسیون": 4484,
    "▁کارآفرین": 4485,
    "▁a": 4486,
    "▁شکستن": 4487,
    "▁گپ": 4488,
    "▁دهلی": 4489,
    "▁مصدومیت": 4490,
    "▁پیوند": 4491,
    "▁استخر": 4492,
    "▁خاش": 4493,
    "▁سیرک": 4494,
    "حاق": 4495,
    "▁fori": 4496,
    "حمل": 4497,
    "▁هشتگ": 4498,
    "▁دفترچه": 4499,
    "▁چغ": 4500,
    "▁تکیه": 4501,
    "▁قبر": 4502,
    "▁ناصر": 4503,
    "▁خصوصیسازی": 4504,
    "عارف": 4505,
    "▁معنی": 4506,
    "▁کاش": 4507,
    "▁کامب": 4508,
    "▁مولدان": 4509,
    "▁مبالغ": 4510,
    "▁معما": 4511,
    "▁تراز": 4512,
    "▁همگانی": 4513,
    "▁معاب": 4514,
    "راتب": 4515,
    "▁علیزاده": 4516,
    "▁62": 4517,
    "▁کوچ": 4518,
    "صال": 4519,
    "▁اردیبهشتماه": 4520,
    "▁بتون": 4521,
    "▁پروتئینی": 4522,
    "▁حافظ": 4523,
    "▁58": 4524,
    "▁158": 4525,
    "▁تاثیرگذار": 4526,
    "▁مارس": 4527,
    "▁محتوای": 4528,
    "▁فوریت": 4529,
    "▁چالشهای": 4530,
    "▁نشانههای": 4531,
    "▁همکارانم": 4532,
    "▁رونق": 4533,
    "▁هاست": 4534,
    "▁آمدند": 4535,
    "▁اخت": 4536,
    "گشا": 4537,
    "▁بدین": 4538,
    "▁فرهنگیان": 4539,
    "▁خورده": 4540,
    "▁فار": 4541,
    "▁مک": 4542,
    "▁021": 4543,
    "▁گزینههای": 4544,
    "▁پروژههای": 4545,
    "▁تروریستها": 4546,
    "▁نوری": 4547,
    "85": 4548,
    "▁الع": 4549,
    "▁علمیه": 4550,
    "▁ناپ": 4551,
    "زدگی": 4552,
    "▁دعوای": 4553,
    "▁تجرب": 4554,
    "▁شناخته": 4555,
    "▁روشهای": 4556,
    "▁ارزها": 4557,
    "▁مجرمان": 4558,
    "▁بازرسیها": 4559,
    "▁چشمگیر": 4560,
    "▁160": 4561,
    "▁خطای": 4562,
    "950": 4563,
    "▁نف": 4564,
    "▁آمریکاییهای": 4565,
    "▁خونه": 4566,
    "خب": 4567,
    "98": 4568,
    "▁مجیدی": 4569,
    "▁کلاهبردار": 4570,
    "▁شنید": 4571,
    "فو": 4572,
    "اذب": 4573,
    "▁سیاستگذار": 4574,
    "▁بازگردان": 4575,
    "▁تخصص": 4576,
    "▁71": 4577,
    "▁اینقدر": 4578,
    "▁پسلرزه": 4579,
    "زل": 4580,
    "برند": 4581,
    "▁3000": 4582,
    "▁کانالهای": 4583,
    "شاه": 4584,
    "▁57": 4585,
    "سیتی": 4586,
    "▁حیدری": 4587,
    "هوش": 4588,
    "▁تهو": 4589,
    "219": 4590,
    "گذر": 4591,
    "میرزایی": 4592,
    "شدگان": 4593,
    "صالح": 4594,
    "جامع": 4595,
    "قلو": 4596,
    "دلار": 4597,
    "▁بالگرد": 4598,
    "▁فراخوان": 4599,
    "▁63": 4600,
    "66": 4601,
    "74": 4602,
    "▁رشت": 4603,
    "0000": 4604,
    "واهد": 4605,
    "▁پاسدار": 4606,
    "▁ساک": 4607,
    "▁سپرده": 4608,
    "▁تمرین": 4609,
    "▁طعمه": 4610,
    "▁فاطمه": 4611,
    "مطابق": 4612,
    "▁اجتناب": 4613,
    "▁ارتقا": 4614,
    "▁اقیانوس": 4615,
    "▁تدبیر": 4616,
    "▁تمرکز": 4617,
    "▁جستوجو": 4618,
    "▁دیاباته": 4619,
    "▁شریعتی": 4620,
    "▁صراحت": 4621,
    "▁فوقالعاده": 4622,
    "▁نمازگزاران": 4623,
    "▁نیشکر": 4624,
    "▁همسایگان": 4625,
    "▁وثیقه": 4626,
    "▁کپسول": 4627,
    "▁جیره": 4628,
    "▁خلیج": 4629,
    "▁زمستان": 4630,
    "▁شلاق": 4631,
    "▁عذاب": 4632,
    "▁فرآوردههای": 4633,
    "▁نباشیم": 4634,
    "▁اربیل": 4635,
    "▁انبوه": 4636,
    "▁بیاوریم": 4637,
    "▁تعرفه": 4638,
    "▁تفریح": 4639,
    "▁تمهید": 4640,
    "▁شرکا": 4641,
    "▁ضمانت": 4642,
    "▁مجاور": 4643,
    "▁مرسول": 4644,
    "▁سررسید": 4645,
    "▁نمیدهند": 4646,
    "▁زاهدان": 4647,
    "▁مطلق": 4648,
    "▁معتبر": 4649,
    "▁فشرده": 4650,
    "▁میگذارد": 4651,
    "▁پردیس": 4652,
    "▁اطفا": 4653,
    "tehran": 4654,
    "▁شاعر": 4655,
    "▁go": 4656,
    "▁رسوا": 4657,
    "▁میدارد": 4658,
    "▁جلیلی": 4659,
    "▁گاو": 4660,
    "▁سانتیمتر": 4661,
    "▁قاچاقچی": 4662,
    "▁کامیون": 4663,
    "▁خارش": 4664,
    "▁حومه": 4665,
    "▁کوواکس": 4666,
    "▁قدرتمند": 4667,
    "▁پیاده": 4668,
    "▁زایمان": 4669,
    "▁شاهرود": 4670,
    "افزای": 4671,
    "▁پویش": 4672,
    "▁کابوس": 4673,
    "▁قایدی": 4674,
    "▁تغذیه": 4675,
    "▁بیاورد": 4676,
    "▁پروتکل": 4677,
    "▁AAAAAF": 4678,
    "▁مثال": 4679,
    "▁خواهم": 4680,
    "▁جماران": 4681,
    "▁سنوات": 4682,
    "▁عمیق": 4683,
    "▁متولی": 4684,
    "▁خوشحال": 4685,
    "▁بازماند": 4686,
    "▁سوپر": 4687,
    "▁مارک": 4688,
    "▁هندوانه": 4689,
    "▁استثنا": 4690,
    "▁مختار": 4691,
    "▁سرتیپ": 4692,
    "▁عباد": 4693,
    "▁خسته": 4694,
    "▁موز": 4695,
    "▁نمودار": 4696,
    "▁حکمران": 4697,
    "▁ارایه": 4698,
    "▁اقتدا": 4699,
    "▁تعرض": 4700,
    "ew": 4701,
    "▁شبانهروز": 4702,
    "sal": 4703,
    "▁جانباز": 4704,
    "مانع": 4705,
    "▁طاهر": 4706,
    "جنوبی": 4707,
    "▁میدادند": 4708,
    "▁عیب": 4709,
    "▁کجاست": 4710,
    "▁ناو": 4711,
    "نجاله": 4712,
    "▁کاشت": 4713,
    "▁سارقان": 4714,
    "▁تعیینکننده": 4715,
    "▁تحرک": 4716,
    "▁میگن": 4717,
    "▁گردشگران": 4718,
    "▁مدعیشده": 4719,
    "▁جوری": 4720,
    "▁آلب": 4721,
    "▁بشکه": 4722,
    "▁حامیان": 4723,
    "▁87": 4724,
    "▁بکش": 4725,
    "▁دهید": 4726,
    "جام": 4727,
    "خاطرات": 4728,
    "▁بشم": 4729,
    "میایی": 4730,
    "میخورد": 4731,
    "▁مستندات": 4732,
    "▁ساختن": 4733,
    "▁کفش": 4734,
    "▁روبه": 4735,
    "▁350": 4736,
    "▁کارفرمای": 4737,
    "▁سرور": 4738,
    "▁سست": 4739,
    "▁مدل": 4740,
    "▁مداحی": 4741,
    "▁حاد": 4742,
    "یوتر": 4743,
    "لز": 4744,
    "▁یکصد": 4745,
    "ch": 4746,
    "▁برنا": 4747,
    "جیب": 4748,
    "خام": 4749,
    "73": 4750,
    "▁انتظارات": 4751,
    "▁نوروزی": 4752,
    "خار": 4753,
    "▁مزایای": 4754,
    "▁ایمان": 4755,
    "▁شو": 4756,
    "▁رفتارهای": 4757,
    "▁افتادن": 4758,
    "▁گیاهی": 4759,
    "▁قطعات": 4760,
    "▁مسلحانه": 4761,
    "▁کردهام": 4762,
    "ارچ": 4763,
    "خوار": 4764,
    "▁طرفدار": 4765,
    "شدهبا": 4766,
    "▁والی": 4767,
    "▁توصیههای": 4768,
    "▁موعد": 4769,
    "▁کشی": 4770,
    "▁قند": 4771,
    "▁نمونههای": 4772,
    "▁49": 4773,
    "▁آوردن": 4774,
    "▁خوراک": 4775,
    "83": 4776,
    "▁راهنمای": 4777,
    "▁پو": 4778,
    "▁لاپ": 4779,
    "▁ارد": 4780,
    "ایق": 4781,
    "▁همدل": 4782,
    "▁غر": 4783,
    "ندگی": 4784,
    "قط": 4785,
    "tm": 4786,
    "▁لول": 4787,
    "▁زخم": 4788,
    "▁انصار": 4789,
    "▁دعوا": 4790,
    "دشت": 4791,
    "یسم": 4792,
    "فانی": 4793,
    "▁اله": 4794,
    "▁1500": 4795,
    "▁قویتر": 4796,
    "جز": 4797,
    "صحی": 4798,
    "شوه": 4799,
    "وفن": 4800,
    "▁کاندید": 4801,
    "کردن": 4802,
    "▁107": 4803,
    "▁کریس": 4804,
    "▁شوخیها": 4805,
    "بوس": 4806,
    "جاب": 4807,
    "ضری": 4808,
    "رمن": 4809,
    "▁وزارتخانه": 4810,
    "▁غربیها": 4811,
    "نیاس": 4812,
    "▁125": 4813,
    "شکاف": 4814,
    "فاسد": 4815,
    "پرداخت": 4816,
    "فکر": 4817,
    "ربط": 4818,
    "آگاه": 4819,
    "نبست": 4820,
    "▁سیان": 4821,
    "▁لرز": 4822,
    "حام": 4823,
    "▁شرم": 4824,
    "▁64": 4825,
    "حافظ": 4826,
    "▁محرومی": 4827,
    "▁نظ": 4828,
    "ناک": 4829,
    "▁نتوان": 4830,
    "amat": 4831,
    "▁فرانس": 4832,
    "نطق": 4833,
    "حصول": 4834,
    "جوش": 4835,
    "صراف": 4836,
    "▁محف": 4837,
    "ency": 4838,
    "▁استارلینک": 4839,
    "▁اقساط": 4840,
    "▁انحراف": 4841,
    "▁تخممرغ": 4842,
    "▁خاطی": 4843,
    "▁خردهفروشی": 4844,
    "▁خسارات": 4845,
    "▁دموکراسی": 4846,
    "▁ذوالنور": 4847,
    "▁زغالسنگ": 4848,
    "▁سلطنت": 4849,
    "▁سیگنال": 4850,
    "▁فلامینگو": 4851,
    "▁فیروزکوه": 4852,
    "▁متجاوز": 4853,
    "▁محاسبات": 4854,
    "▁مضاعف": 4855,
    "▁معصوم": 4856,
    "▁ونزوئلا": 4857,
    "▁انسولین": 4858,
    "▁تساوی": 4859,
    "▁ملاحظه": 4860,
    "▁ضدکرونا": 4861,
    "hahr": 4862,
    "orna": 4863,
    "▁سوزاند": 4864,
    "▁مستقل": 4865,
    "▁واریانت": 4866,
    "▁کنسرت": 4867,
    "▁التهاب": 4868,
    "▁شارژ": 4869,
    "▁نمیشوم": 4870,
    "▁اردکان": 4871,
    "▁سرکوب": 4872,
    "▁عنبر": 4873,
    "▁لیالی": 4874,
    "▁مراعات": 4875,
    "▁سرازیر": 4876,
    "▁علایم": 4877,
    "▁میرویم": 4878,
    "▁سونامی": 4879,
    "▁تراکنش": 4880,
    "▁سپید": 4881,
    "▁ذخیره": 4882,
    "▁محک": 4883,
    "▁شعر": 4884,
    "▁ایثارگران": 4885,
    "▁لاشه": 4886,
    "▁بندرعباس": 4887,
    "▁بردارند": 4888,
    "▁نبات": 4889,
    "▁کنایه": 4890,
    "▁موازنه": 4891,
    "▁گمنام": 4892,
    "▁بورل": 4893,
    "▁نعمتی": 4894,
    "▁اتصال": 4895,
    "▁ندهد": 4896,
    "▁بانوان": 4897,
    "▁پذیرای": 4898,
    "فرمایید": 4899,
    "▁هادی": 4900,
    "▁عالم": 4901,
    "معرفت": 4902,
    "▁داروخانه": 4903,
    "▁اظهارنظر": 4904,
    "▁خوشبین": 4905,
    "▁مدنظر": 4906,
    "▁قاتل": 4907,
    "▁بمبگذاری": 4908,
    "عطل": 4909,
    "and": 4910,
    "▁جنایتکار": 4911,
    "▁خراب": 4912,
    "▁مزاحمت": 4913,
    "▁شاهزاده": 4914,
    "یامک": 4915,
    "▁آسیبپذیر": 4916,
    "▁افسر": 4917,
    "▁بینظیر": 4918,
    "▁نعمتها": 4919,
    "▁بپردازد": 4920,
    "▁مولا": 4921,
    "▁دیلی": 4922,
    "▁لاله": 4923,
    "▁بچهها": 4924,
    "▁نمیدانست": 4925,
    "▁دادهایم": 4926,
    "▁نیاید": 4927,
    "▁داماد": 4928,
    "▁تصرف": 4929,
    "▁نرسد": 4930,
    "▁دلتا": 4931,
    "ir": 4932,
    "▁نمره": 4933,
    "بقی": 4934,
    "▁سلب": 4935,
    "▁زیبایی": 4936,
    "▁نکردیم": 4937,
    "▁سیاستمداران": 4938,
    "▁اسلو": 4939,
    "▁66": 4940,
    "▁بزرگسال": 4941,
    "▁رویداد": 4942,
    "▁دارن": 4943,
    "تراف": 4944,
    "▁تیز": 4945,
    "▁دلال": 4946,
    "شاوی": 4947,
    "▁ژورنال": 4948,
    "▁عبر": 4949,
    "▁سازنده": 4950,
    "▁رایج": 4951,
    "▁ایست": 4952,
    "▁تعامل": 4953,
    "▁محکومشدهاست": 4954,
    "▁خواند": 4955,
    "▁جنگل": 4956,
    "▁یور": 4957,
    "▁پژوهشگر": 4958,
    "▁کاربرد": 4959,
    "ائیل": 4960,
    "▁نداشتند": 4961,
    "▁بالاست": 4962,
    "▁هو": 4963,
    "▁دادهبودند": 4964,
    "▁102": 4965,
    "▁بدو": 4966,
    "▁هراس": 4967,
    "▁صادرشدهاست": 4968,
    "▁سیتی": 4969,
    "▁دادهشدهو": 4970,
    "▁جنبه": 4971,
    "▁عهد": 4972,
    "تصدی": 4973,
    "اشون": 4974,
    "▁زایی": 4975,
    "▁گراند": 4976,
    "▁V": 4977,
    "▁شوخی": 4978,
    "▁صرفه": 4979,
    "▁شناساییشده": 4980,
    "▁نشر": 4981,
    "95": 4982,
    "▁نکردن": 4983,
    "▁بدان": 4984,
    "▁سوپرمارکتها": 4985,
    "▁پلم": 4986,
    "شناسان": 4987,
    "زر": 4988,
    "نایی": 4989,
    "▁نشستن": 4990,
    "▁سریعا": 4991,
    "▁عمره": 4992,
    "▁خواج": 4993,
    "▁بازگشتند": 4994,
    "ذه": 4995,
    "▁بستن": 4996,
    "33": 4997,
    "▁لک": 4998,
    "▁همون": 4999,
    "کینگ": 5000,
    "▁میگرفت": 5001,
    "▁ناب": 5002,
    "▁عش": 5003,
    "پوند": 5004,
    "وطن": 5005,
    "▁انف": 5006,
    "▁نوب": 5007,
    "▁نود": 5008,
    "500": 5009,
    "▁فج": 5010,
    "میرسید": 5011,
    "بول": 5012,
    "▁باردار": 5013,
    "450": 5014,
    "▁سردر": 5015,
    "▁نداد": 5016,
    "اتیو": 5017,
    "▁پرستو": 5018,
    "▁نیروها": 5019,
    "امنه": 5020,
    "▁میاد": 5021,
    "72": 5022,
    "▁650": 5023,
    "▁ایجادشده": 5024,
    "سوزی": 5025,
    "زودی": 5026,
    "گرفته": 5027,
    "سواری": 5028,
    "ابراهیم": 5029,
    "رمضان": 5030,
    "khabar": 5031,
    "برابر": 5032,
    "خورده": 5033,
    "زاب": 5034,
    "محر": 5035,
    "شوید": 5036,
    "چیز": 5037,
    "▁نزدیکتر": 5038,
    "اذی": 5039,
    "▁شناخت": 5040,
    "ولت": 5041,
    "باشند": 5042,
    "جلس": 5043,
    "▁مولد": 5044,
    "▁حامی": 5045,
    "ذر": 5046,
    "▁000": 5047,
    "▁193": 5048,
    "▁اکر": 5049,
    "ینیو": 5050,
    "▁بقای": 5051,
    "حوثی": 5052,
    "▁المپی": 5053,
    "▁ندادن": 5054,
    "▁پالایش": 5055,
    "تقال": 5056,
    "▁هرمز": 5057,
    "▁سانتی": 5058,
    "▁دوچرخه": 5059,
    "▁مظنون": 5060,
    "ent": 5061,
    "▁آنفلوآنزا": 5062,
    "▁اورشلیم": 5063,
    "▁بیتالمقدس": 5064,
    "▁بیولوژیک": 5065,
    "▁تلفنهمراه": 5066,
    "▁زحمت": 5067,
    "▁سیستانوبلوچستان": 5068,
    "▁شبهنظامیان": 5069,
    "▁ضدعفونی": 5070,
    "▁عرصه": 5071,
    "▁عسقلان": 5072,
    "▁غضروف": 5073,
    "▁قرقیزستان": 5074,
    "▁لژیونر": 5075,
    "▁مارادونا": 5076,
    "▁مباحث": 5077,
    "▁مجتمع": 5078,
    "▁پنالتی": 5079,
    "▁صنوف": 5080,
    "▁مرتضی": 5081,
    "▁مغانلو": 5082,
    "▁نخاع": 5083,
    "▁وبسایت": 5084,
    "▁بگویید": 5085,
    "▁بگوییم": 5086,
    "▁ثانوی": 5087,
    "▁ویرایش": 5088,
    "پردازش": 5089,
    "▁مضمون": 5090,
    "▁نمیدهیم": 5091,
    "▁کوثر": 5092,
    "▁گیگا": 5093,
    "▁رقیب": 5094,
    "▁ادرار": 5095,
    "▁ربنا": 5096,
    "▁قبیل": 5097,
    "▁قسام": 5098,
    "▁شوینده": 5099,
    "▁تحریک": 5100,
    "▁میگردد": 5101,
    "▁گناه": 5102,
    "▁حرکات": 5103,
    "▁اسپانیا": 5104,
    "▁کنعانی": 5105,
    "▁بگویم": 5106,
    "▁تدارک": 5107,
    "▁متوفی": 5108,
    "▁والاستریت": 5109,
    "▁برجسته": 5110,
    "▁لحن": 5111,
    "▁یونس": 5112,
    "▁بگذاریم": 5113,
    "▁تبعیض": 5114,
    "▁تشکل": 5115,
    "▁ابریشم": 5116,
    "▁عاطف": 5117,
    "▁برساند": 5118,
    "خالص": 5119,
    "▁مسافربری": 5120,
    "▁تبصره": 5121,
    "▁فاضلاب": 5122,
    "▁هدفمند": 5123,
    "▁ذهن": 5124,
    "▁پنجره": 5125,
    "بیاورند": 5126,
    "▁غصب": 5127,
    "▁تعمیر": 5128,
    "▁پاییز": 5129,
    "▁قریب": 5130,
    "▁کوهنورد": 5131,
    "▁سازندگان": 5132,
    "▁شاگرد": 5133,
    "▁هرکس": 5134,
    "▁مسافت": 5135,
    "▁بیایند": 5136,
    "▁افشاگری": 5137,
    "▁کروبی": 5138,
    "▁بنگاهها": 5139,
    "▁طرز": 5140,
    "▁پلاستیک": 5141,
    "▁دستنوشته": 5142,
    "▁آبزی": 5143,
    "▁متقارن": 5144,
    "▁نمایندگی": 5145,
    "ag": 5146,
    "▁تایوان": 5147,
    "▁کپی": 5148,
    "▁داشتهایم": 5149,
    "▁ارزپاشی": 5150,
    "▁خرد": 5151,
    "▁ناچ": 5152,
    "▁دفع": 5153,
    "▁توسل": 5154,
    "▁مصون": 5155,
    "▁سفته": 5156,
    "▁افق": 5157,
    "▁چنگ": 5158,
    "▁متنوع": 5159,
    "▁رئ": 5160,
    "▁مواز": 5161,
    "▁se": 5162,
    "▁نظیف": 5163,
    "▁امانت": 5164,
    "▁430": 5165,
    "▁باغچه": 5166,
    "▁سیکل": 5167,
    "▁افول": 5168,
    "▁سپردهگذار": 5169,
    "▁اومده": 5170,
    "مزد": 5171,
    "▁جاماند": 5172,
    "▁گون": 5173,
    "▁دیدیم": 5174,
    "▁محلول": 5175,
    "▁اکران": 5176,
    "▁اعم": 5177,
    "▁کوهن": 5178,
    "▁ژو": 5179,
    "▁آزادگان": 5180,
    "▁تعد": 5181,
    "عبدالله": 5182,
    "▁زدهاند": 5183,
    "حاب": 5184,
    "▁مخت": 5185,
    "▁ژان": 5186,
    "▁نوید": 5187,
    "▁عادت": 5188,
    "▁تخمین": 5189,
    "▁نرس": 5190,
    "▁متقاضیان": 5191,
    "▁آرش": 5192,
    "▁پرسش": 5193,
    "ناب": 5194,
    "728": 5195,
    "فع": 5196,
    "▁so": 5197,
    "▁مثلث": 5198,
    "▁تبدیلشدهاست": 5199,
    "▁روستاییان": 5200,
    "▁پارچ": 5201,
    "▁خودشون": 5202,
    "563": 5203,
    "گذشته": 5204,
    "▁دشت": 5205,
    "فق": 5206,
    "▁باتری": 5207,
    "▁گیلا": 5208,
    "▁باعثشده": 5209,
    "▁لکه": 5210,
    "تنم": 5211,
    "سون": 5212,
    "▁شعارهای": 5213,
    "▁کیش": 5214,
    "صت": 5215,
    "▁نیو": 5216,
    "▁تامل": 5217,
    "وریس": 5218,
    "▁استانداران": 5219,
    "میادین": 5220,
    "▁ببند": 5221,
    "▁پرندهها": 5222,
    "▁داروساز": 5223,
    "▁یکساله": 5224,
    "▁برادران": 5225,
    "ro": 5226,
    "ماریا": 5227,
    "شکار": 5228,
    "▁تاژ": 5229,
    "▁آپ": 5230,
    "▁خانوارها": 5231,
    "▁روانه": 5232,
    "▁رسان": 5233,
    "▁بازگرداند": 5234,
    "▁گرگ": 5235,
    "سعی": 5236,
    "▁جنگندهها": 5237,
    "مهریز": 5238,
    "▁استرا": 5239,
    "آورده": 5240,
    "63": 5241,
    "گرفتن": 5242,
    "▁277": 5243,
    "پیش": 5244,
    "▁جنس": 5245,
    "▁آوارگ": 5246,
    "▁شنیدهها": 5247,
    "توس": 5248,
    "▁مصاد": 5249,
    "▁باعثشدهت": 5250,
    "▁سرمایهدار": 5251,
    "▁مادرش": 5252,
    "▁بیپای": 5253,
    "▁گیاه": 5254,
    "▁206": 5255,
    "حاد": 5256,
    "▁دانشجو": 5257,
    "▁نقد": 5258,
    "▁نزول": 5259,
    "▁نمک": 5260,
    "▁کیفر": 5261,
    "▁بستر": 5262,
    "▁کشفشده": 5263,
    "▁مطرحشده": 5264,
    "▁نمود": 5265,
    "▁داو": 5266,
    "حسن": 5267,
    "جیک": 5268,
    "لمس": 5269,
    "▁خب": 5270,
    "▁207": 5271,
    "▁صادرشده": 5272,
    "▁81": 5273,
    "انقلاب": 5274,
    "مخدر": 5275,
    "باقر": 5276,
    "نظامی": 5277,
    "واحد": 5278,
    "کشور": 5279,
    "بورس": 5280,
    "فعال": 5281,
    "▁دوربینها": 5282,
    "لههای": 5283,
    "▁بازنشستگ": 5284,
    "▁ردصلاحیت": 5285,
    "حاشی": 5286,
    "▁سینماها": 5287,
    "▁قسم": 5288,
    "▁گردشگر": 5289,
    "افشار": 5290,
    "▁خف": 5291,
    "▁بیاعت": 5292,
    "شیپ": 5293,
    "▁میفروش": 5294,
    "جزیره": 5295,
    "▁ثروت": 5296,
    "▁اغتشاش": 5297,
    "▁علاقمند": 5298,
    "▁نارضایتی": 5299,
    "▁آشامیدن": 5300,
    "▁افراط": 5301,
    "▁بخرند": 5302,
    "▁بلغارستان": 5303,
    "▁بیخانمان": 5304,
    "▁دیکتاتور": 5305,
    "▁زمینلرزه": 5306,
    "▁سوپرلیگ": 5307,
    "▁سکانس": 5308,
    "▁طالقان": 5309,
    "▁فرهیختگان": 5310,
    "▁فنلاند": 5311,
    "▁لاکچری": 5312,
    "▁لیورپول": 5313,
    "▁متمرکز": 5314,
    "▁مجاهدت": 5315,
    "▁محمدصادق": 5316,
    "▁کولرگازی": 5317,
    "▁بهوسیله": 5318,
    "▁نباشید": 5319,
    "▁نمیگیرد": 5320,
    "▁اتوبان": 5321,
    "▁تشریفات": 5322,
    "▁رفیع": 5323,
    "▁شکنجه": 5324,
    "▁فاتحه": 5325,
    "▁ویتامین": 5326,
    "▁خزانه": 5327,
    "▁ضایع": 5328,
    "▁مشروعیت": 5329,
    "▁ناقض": 5330,
    "▁بازگردند": 5331,
    "▁چاقو": 5332,
    "▁گرمسار": 5333,
    "▁بازگردد": 5334,
    "▁کذب": 5335,
    "▁جهیزیه": 5336,
    "▁خبیث": 5337,
    "▁دندون": 5338,
    "▁میخرند": 5339,
    "▁باهنر": 5340,
    "▁سرزنش": 5341,
    "▁شریک": 5342,
    "▁میگویم": 5343,
    "▁منظم": 5344,
    "▁متواری": 5345,
    "▁رزمند": 5346,
    "▁خاور": 5347,
    "▁علاقهمند": 5348,
    "▁عرفان": 5349,
    "▁زائر": 5350,
    "▁روزنامهنگار": 5351,
    "▁شایست": 5352,
    "جهرمی": 5353,
    "▁خاکستر": 5354,
    "▁سرلشکر": 5355,
    "▁شتاب": 5356,
    "▁اکانت": 5357,
    "▁سوادکوه": 5358,
    "▁سودجویان": 5359,
    "▁الشباب": 5360,
    "▁ربوده": 5361,
    "▁نمیشه": 5362,
    "▁نمیشوند": 5363,
    "میگرداند": 5364,
    "ژانیرو": 5365,
    "▁بالقوه": 5366,
    "بدیل": 5367,
    "▁پیامدهای": 5368,
    "مساح": 5369,
    "▁بفهم": 5370,
    "▁مغذی": 5371,
    "▁ایلنا": 5372,
    "▁نیاورد": 5373,
    "▁اسباب": 5374,
    "▁توریست": 5375,
    "▁رجب": 5376,
    "▁گورستان": 5377,
    "▁نجف": 5378,
    "▁هلاک": 5379,
    "▁مخابر": 5380,
    "▁اشرف": 5381,
    "▁ناقص": 5382,
    "▁بدهکار": 5383,
    "▁ایثار": 5384,
    "▁بشود": 5385,
    "▁بدخواهان": 5386,
    "▁شهاب": 5387,
    "▁مصلی": 5388,
    "▁برگرداند": 5389,
    "▁تقلید": 5390,
    "aran": 5391,
    "▁بزن": 5392,
    "▁دبیرخانه": 5393,
    "▁سالیوان": 5394,
    "▁صدیق": 5395,
    "▁گلزنی": 5396,
    "▁جناب": 5397,
    "▁لنز": 5398,
    "لانگ": 5399,
    "▁ندادیم": 5400,
    "ij": 5401,
    "▁سرگردان": 5402,
    "▁ایراد": 5403,
    "▁میخواد": 5404,
    "▁حریف": 5405,
    "▁کیوان": 5406,
    "▁آرمان": 5407,
    "▁بخار": 5408,
    "▁شاهکار": 5409,
    "▁نماید": 5410,
    "▁میفروشند": 5411,
    "▁کیف": 5412,
    "▁هشتاد": 5413,
    "37": 5414,
    "▁سهگانه": 5415,
    "▁قائل": 5416,
    "▁گود": 5417,
    "▁نیافته": 5418,
    "▁رایتل": 5419,
    "▁یوسی": 5420,
    "▁میپذیر": 5421,
    "ev": 5422,
    "▁مایع": 5423,
    "▁سیف": 5424,
    "نشدهباشد": 5425,
    "▁تبری": 5426,
    "ستثن": 5427,
    "▁WVi": 5428,
    "▁هفتاد": 5429,
    "▁ایتالیایی": 5430,
    "بجای": 5431,
    "▁زنگ": 5432,
    "▁الوحده": 5433,
    "▁انگار": 5434,
    "▁مشخصنشدهاست": 5435,
    "▁روده": 5436,
    "▁رحمت": 5437,
    "▁گریه": 5438,
    "▁صبور": 5439,
    "▁چرخش": 5440,
    "▁میکشند": 5441,
    "▁دانه": 5442,
    "▁1000": 5443,
    "ous": 5444,
    "لکن": 5445,
    "▁برادرم": 5446,
    "▁کشیدند": 5447,
    "▁حدس": 5448,
    "▁190": 5449,
    "▁خرما": 5450,
    "قاصد": 5451,
    "▁فراخواند": 5452,
    "▁کلنگ": 5453,
    "ذیل": 5454,
    "▁پیمان": 5455,
    "▁غار": 5456,
    "▁موزه": 5457,
    "▁لوگو": 5458,
    "سیوی": 5459,
    "▁توزیعشدهاست": 5460,
    "▁حما": 5461,
    "▁109": 5462,
    "▁157": 5463,
    "عالی": 5464,
    "700": 5465,
    "▁حلیم": 5466,
    "▁هستن": 5467,
    "64": 5468,
    "کده": 5469,
    "پول": 5470,
    "▁جد": 5471,
    "▁تهیهکنند": 5472,
    "تیر": 5473,
    "▁گرا": 5474,
    "▁بیدار": 5475,
    "انریک": 5476,
    "▁اعل": 5477,
    "آلو": 5478,
    "▁پرستوها": 5479,
    "آب": 5480,
    "نصد": 5481,
    "▁مینی": 5482,
    "تیپ": 5483,
    "▁ندا": 5484,
    "فخرا": 5485,
    "وازن": 5486,
    "▁نج": 5487,
    "▁موسو": 5488,
    "تعجب": 5489,
    "▁عنا": 5490,
    "روف": 5491,
    "▁انداخته": 5492,
    "▁معیار": 5493,
    "جال": 5494,
    "راب": 5495,
    "▁دخترش": 5496,
    "خرید": 5497,
    "یوون": 5498,
    "▁برجا": 5499,
    "tu": 5500,
    "لاوی": 5501,
    "استریت": 5502,
    "600": 5503,
    "▁لج": 5504,
    "▁خانواد": 5505,
    "▁جنگنده": 5506,
    "▁زیرساخت": 5507,
    "▁دامدار": 5508,
    "چر": 5509,
    "▁توپ": 5510,
    "ورنت": 5511,
    "ربای": 5512,
    "▁پشتیبان": 5513,
    "▁کشاورز": 5514,
    "شوند": 5515,
    "▁پرنده": 5516,
    "▁طارم": 5517,
    "▁اجتماع": 5518,
    "▁مزایا": 5519,
    "▁نوروز": 5520,
    "بدل": 5521,
    "وشیده": 5522,
    "▁سفرهها": 5523,
    "▁210": 5524,
    "جانب": 5525,
    "▁مواج": 5526,
    "عباس": 5527,
    "المپیک": 5528,
    "حرفهای": 5529,
    "اقتصاد": 5530,
    "نژاد": 5531,
    "جمله": 5532,
    "ساعت": 5533,
    "درمانی": 5534,
    "کسان": 5535,
    "پیوست": 5536,
    "الدو": 5537,
    "▁مقاوم": 5538,
    "ut": 5539,
    "▁سارق": 5540,
    "عادت": 5541,
    "روس": 5542,
    "▁نمیدان": 5543,
    "▁تقریب": 5544,
    "▁دیپلم": 5545,
    "▁میآی": 5546,
    "▁تاییدنشده": 5547,
    "▁Akhbar": 5548,
    "▁رهنمود": 5549,
    "▁متغیر": 5550,
    "▁پروفروم": 5551,
    "erman": 5552,
    "گسیخته": 5553,
    "▁آکسفورد": 5554,
    "▁الاسلام": 5555,
    "▁انقضا": 5556,
    "▁بلومبرگ": 5557,
    "▁بیتالمال": 5558,
    "▁تختروانچی": 5559,
    "▁تقدیم": 5560,
    "▁تهاجم": 5561,
    "▁تکواندو": 5562,
    "▁جروزالم": 5563,
    "▁جواهر": 5564,
    "▁دخانی": 5565,
    "▁رفاقت": 5566,
    "▁شرارت": 5567,
    "▁ضربالاجل": 5568,
    "▁فضاپیما": 5569,
    "▁فیلیمو": 5570,
    "▁لیسانس": 5571,
    "▁مترمکعب": 5572,
    "▁مهمانپرست": 5573,
    "▁موتورسیکلت": 5574,
    "▁میشویم": 5575,
    "▁واژگون": 5576,
    "▁پتروشیمی": 5577,
    "▁پربازدیدترینها": 5578,
    "▁کاتیوشا": 5579,
    "▁کارآمد": 5580,
    "▁کنفرانس": 5581,
    "▁گمانهزنی": 5582,
    "▁ایسپا": 5583,
    "▁تحریف": 5584,
    "▁جهنم": 5585,
    "▁زودهنگام": 5586,
    "▁شیرخشک": 5587,
    "▁متفرق": 5588,
    "▁مداخل": 5589,
    "▁مرگومیر": 5590,
    "▁مسمومیت": 5591,
    "▁واگن": 5592,
    "▁وزارتخارجه": 5593,
    "طلاح": 5594,
    "▁بیاورید": 5595,
    "▁علیاکبر": 5596,
    "▁فرسود": 5597,
    "▁لیلاز": 5598,
    "▁پیامرسانها": 5599,
    "▁استنشاق": 5600,
    "▁ساقط": 5601,
    "▁میرسلیم": 5602,
    "▁شروط": 5603,
    "▁مزدور": 5604,
    "▁هندوستان": 5605,
    "▁احوال": 5606,
    "▁قاجار": 5607,
    "▁برونشهری": 5608,
    "▁خلوت": 5609,
    "▁زاکانی": 5610,
    "▁فرشاد": 5611,
    "▁قفس": 5612,
    "▁میگذارند": 5613,
    "▁اقلیت": 5614,
    "▁اقلیم": 5615,
    "▁تربیت": 5616,
    "▁مهدوی": 5617,
    "▁پنیر": 5618,
    "▁توانمند": 5619,
    "▁پرشور": 5620,
    "▁خونریزی": 5621,
    "▁گنج": 5622,
    "▁زامبیا": 5623,
    "▁شیعه": 5624,
    "▁چادر": 5625,
    "▁گچس": 5626,
    "اگون": 5627,
    "▁حبیب": 5628,
    "▁عزم": 5629,
    "▁پادشاه": 5630,
    "▁وحشتناک": 5631,
    "▁سردخانه": 5632,
    "جاج": 5633,
    "▁پناهگاهها": 5634,
    "▁بنکدار": 5635,
    "▁قبض": 5636,
    "▁نمیکرد": 5637,
    "▁یحیی": 5638,
    "▁تلآویو": 5639,
    "▁ارزشمند": 5640,
    "▁لنگر": 5641,
    "▁ندهیم": 5642,
    "▁مستعان": 5643,
    "▁ناصرالدین": 5644,
    "▁اندیشه": 5645,
    "▁بردارد": 5646,
    "▁مشفق": 5647,
    "زادگان": 5648,
    "▁توانیر": 5649,
    "▁ندهند": 5650,
    "▁یاسین": 5651,
    "▁ابداع": 5652,
    "▁وسیع": 5653,
    "▁پنجاه": 5654,
    "▁جلیقه": 5655,
    "ووا": 5656,
    "ارویی": 5657,
    "▁برلین": 5658,
    "▁کاسب": 5659,
    "▁برسند": 5660,
    "▁ربایش": 5661,
    "▁کشنده": 5662,
    "▁گلایه": 5663,
    "▁اسلامشهر": 5664,
    "▁فتانه": 5665,
    "سلسله": 5666,
    "▁گارد": 5667,
    "▁25300": 5668,
    "▁بهارستان": 5669,
    "عضل": 5670,
    "▁پرندگان": 5671,
    "▁یاهو": 5672,
    "▁الاغ": 5673,
    "▁بودهایم": 5674,
    "شنوای": 5675,
    "▁ضراب": 5676,
    "▁غرق": 5677,
    "▁فلاح": 5678,
    "▁عصا": 5679,
    "کفایت": 5680,
    "▁کلاه": 5681,
    "▁دماوند": 5682,
    "▁قطعنامه": 5683,
    "▁تشن": 5684,
    "ab": 5685,
    "▁رسیدهایم": 5686,
    "▁دورکاری": 5687,
    "▁میبینید": 5688,
    "▁امیرآباد": 5689,
    "خلال": 5690,
    "طفه": 5691,
    "▁بزودی": 5692,
    "▁ویزا": 5693,
    "▁خلع": 5694,
    "▁معاین": 5695,
    "سلط": 5696,
    "▁نخب": 5697,
    "▁موضعگیری": 5698,
    "▁2025": 5699,
    "▁اراک": 5700,
    "▁عسل": 5701,
    "▁رزو": 5702,
    "▁رفتهاند": 5703,
    "▁نرود": 5704,
    "▁لرزش": 5705,
    "▁غارت": 5706,
    "▁ساختهاند": 5707,
    "▁پتا": 5708,
    "▁280": 5709,
    "▁کارزار": 5710,
    "▁315": 5711,
    "▁انداختن": 5712,
    "▁ردصلاحیتها": 5713,
    "▁نداشتهاند": 5714,
    "نجار": 5715,
    "علمی": 5716,
    "▁مقاله": 5717,
    "▁میگفتند": 5718,
    "▁شنیدم": 5719,
    "▁شاپ": 5720,
    "▁ندادند": 5721,
    "▁نکن": 5722,
    "▁باشم": 5723,
    "▁پراید": 5724,
    "▁275": 5725,
    "Yt": 5726,
    "▁جلد": 5727,
    "علاج": 5728,
    "▁میمانند": 5729,
    "میبینیم": 5730,
    "▁گول": 5731,
    "▁مغازهدار": 5732,
    "یمبا": 5733,
    "▁تفک": 5734,
    "▁یافتهاند": 5735,
    "▁220": 5736,
    "▁249": 5737,
    "▁اعظم": 5738,
    "غام": 5739,
    "▁لاک": 5740,
    "▁مادرید": 5741,
    "▁میکردیم": 5742,
    "▁امریکایی": 5743,
    "ویچ": 5744,
    "▁بایستی": 5745,
    "▁ریل": 5746,
    "▁بالگردها": 5747,
    "راع": 5748,
    "▁هلدهند": 5749,
    "رغو": 5750,
    "حکیم": 5751,
    "زیر": 5752,
    "▁سارا": 5753,
    "▁سالیان": 5754,
    "درزی": 5755,
    "ra": 5756,
    "هیمی": 5757,
    "▁معاف": 5758,
    "تکاب": 5759,
    "نوشت": 5760,
    "▁بندیها": 5761,
    "▁بلو": 5762,
    "895": 5763,
    "میبینند": 5764,
    "▁جانور": 5765,
    "پنا": 5766,
    "380": 5767,
    "▁نویسند": 5768,
    "230": 5769,
    "▁وظیفها": 5770,
    "▁737": 5771,
    "▁زیرساختها": 5772,
    "▁نمای": 5773,
    "▁کلاسها": 5774,
    "650": 5775,
    "▁کولرها": 5776,
    "حیل": 5777,
    "▁لس": 5778,
    "▁اپراتورها": 5779,
    "▁انداخت": 5780,
    "تیکی": 5781,
    "555": 5782,
    "▁تعج": 5783,
    "▁القا": 5784,
    "▁ناگ": 5785,
    "351": 5786,
    "سلون": 5787,
    "یافتند": 5788,
    "▁میدانست": 5789,
    "▁وابستگ": 5790,
    "وهاب": 5791,
    "▁گزارشگر": 5792,
    "350": 5793,
    "300": 5794,
    "سیلها": 5795,
    "▁طراح": 5796,
    "▁اجبار": 5797,
    "▁سرمایهگذار": 5798,
    "▁اردو": 5799,
    "▁اولیا": 5800,
    "خوابی": 5801,
    "▁برچی": 5802,
    "بایست": 5803,
    "نکردنی": 5804,
    "ومتری": 5805,
    "▁فروشند": 5806,
    "▁متص": 5807,
    "گفتهایم": 5808,
    "حضوری": 5809,
    "مهندس": 5810,
    "پاستور": 5811,
    "ورزشی": 5812,
    "1399": 5813,
    "عصر": 5814,
    "اجتماعی": 5815,
    "نسبت": 5816,
    "قبلی": 5817,
    "بستگ": 5818,
    "واکسن": 5819,
    "خطر": 5820,
    "▁شایع": 5821,
    "بعدی": 5822,
    "هزارتومان": 5823,
    "پشت": 5824,
    "رنج": 5825,
    "شرق": 5826,
    "▁راجع": 5827,
    "▁الوحد": 5828,
    "▁مناظر": 5829,
    "▁اضاف": 5830,
    "▁سیاستمدار": 5831,
    "▁طالب": 5832,
    "eta": 5833,
    "▁میزنن": 5834,
    "▁قائ": 5835,
    "▁میرزا": 5836,
    "▁اومد": 5837,
    "زمن": 5838,
    "▁پمپ": 5839,
    "▁شاخ": 5840,
    "▁تصفیه": 5841,
    "▁دیالوگ": 5842,
    "▁کارآموز": 5843,
    "دربزرگ": 5844,
    "لوازمخانگی": 5845,
    "▁iphone": 5846,
    "▁اسفراین": 5847,
    "▁الحدث": 5848,
    "▁انعکاس": 5849,
    "▁تقصیر": 5850,
    "▁جورجیا": 5851,
    "▁خلاص": 5852,
    "▁زمزمه": 5853,
    "▁سامسونگ": 5854,
    "▁صربستان": 5855,
    "▁ظالم": 5856,
    "▁عبدالملک": 5857,
    "▁عنکبوت": 5858,
    "▁عینالاسد": 5859,
    "▁فرسایش": 5860,
    "▁قنیطره": 5861,
    "▁مارمولک": 5862,
    "▁مشیریه": 5863,
    "▁مظاهر": 5864,
    "▁مقادیر": 5865,
    "▁موتلفه": 5866,
    "▁نیفتاد": 5867,
    "▁هجدهم": 5868,
    "▁هلالاحمر": 5869,
    "▁پابرجا": 5870,
    "▁پانزدهم": 5871,
    "▁پلتفرم": 5872,
    "▁چوپان": 5873,
    "▁ژنومی": 5874,
    "▁کووپارس": 5875,
    "▁گنبدکاووس": 5876,
    "▁یکپارچه": 5877,
    "▁تقطیعشده": 5878,
    "▁حشره": 5879,
    "▁رقبا": 5880,
    "▁نمیآید": 5881,
    "▁نپذیرفت": 5882,
    "▁پورسانت": 5883,
    "اندونزی": 5884,
    "مخدوش": 5885,
    "▁بهنقل": 5886,
    "▁بیاثر": 5887,
    "▁تعلل": 5888,
    "▁شائبه": 5889,
    "▁شاغل": 5890,
    "▁معجزه": 5891,
    "▁آییننامه": 5892,
    "▁جیرانی": 5893,
    "▁کمپانی": 5894,
    "▁ذوق": 5895,
    "▁محراب": 5896,
    "▁ناموفق": 5897,
    "▁بیگناه": 5898,
    "▁لوکوم": 5899,
    "▁بشناسید": 5900,
    "▁نامناسب": 5901,
    "▁نادعلی": 5902,
    "▁گلمکان": 5903,
    "▁بفروشد": 5904,
    "▁خدمتگزار": 5905,
    "▁نائب": 5906,
    "▁زراعی": 5907,
    "▁مودیان": 5908,
    "▁سرنگون": 5909,
    "▁سکته": 5910,
    "▁تاکسیرانی": 5911,
    "▁تکنیک": 5912,
    "▁رختکن": 5913,
    "▁لهستان": 5914,
    "▁میسازد": 5915,
    "▁نزنیم": 5916,
    "▁شیطان": 5917,
    "▁بگذارند": 5918,
    "▁تسلا": 5919,
    "▁مناجات": 5920,
    "▁همجوار": 5921,
    "▁ادوار": 5922,
    "▁ترفند": 5923,
    "▁بکنند": 5924,
    "▁گریبان": 5925,
    "▁میداریم": 5926,
    "▁زاینده": 5927,
    "▁عقد": 5928,
    "▁ورامین": 5929,
    "▁قصر": 5930,
    "▁گریخت": 5931,
    "نسیل": 5932,
    "▁معتاد": 5933,
    "▁افریقا": 5934,
    "▁عقید": 5935,
    "▁ادبی": 5936,
    "▁حصر": 5937,
    "▁انتصاب": 5938,
    "▁بسازید": 5939,
    "▁غیرایرانی": 5940,
    "▁بخشیدم": 5941,
    "▁نظاره": 5942,
    "▁تابلو": 5943,
    "▁تالار": 5944,
    "▁حواس": 5945,
    "▁ماندگار": 5946,
    "▁kho": 5947,
    "▁خوابگاهها": 5948,
    "▁پوکی": 5949,
    "▁عبدالرضا": 5950,
    "▁مختص": 5951,
    "▁مسخره": 5952,
    "▁نمیرود": 5953,
    "▁صدرنشین": 5954,
    "▁ساها": 5955,
    "▁سعد": 5956,
    "▁قهوه": 5957,
    "▁قلدر": 5958,
    "▁مانور": 5959,
    "▁نگذاشت": 5960,
    "▁پادگان": 5961,
    "▁دردسر": 5962,
    "▁تحقی": 5963,
    "▁اهداکنندگان": 5964,
    "راسیون": 5965,
    "▁میامی": 5966,
    "▁کمونیس": 5967,
    "خاصم": 5968,
    "▁بیآب": 5969,
    "▁رقص": 5970,
    "▁شهرکنشین": 5971,
    "▁صاع": 5972,
    "▁فاکس": 5973,
    "▁انفعال": 5974,
    "▁هنگفت": 5975,
    "▁ya": 5976,
    "▁واژه": 5977,
    "▁گلخانه": 5978,
    "▁گاران": 5979,
    "▁وجوه": 5980,
    "▁عصب": 5981,
    "▁پخت": 5982,
    "▁ابدی": 5983,
    "▁غصه": 5984,
    "▁WUj": 5985,
    "▁343": 5986,
    "▁هیجان": 5987,
    "▁be": 5988,
    "▁میهن": 5989,
    "▁شیفت": 5990,
    "▁WWN": 5991,
    "svi": 5992,
    "▁اسپری": 5993,
    "▁بیوق": 5994,
    "▁بازنش": 5995,
    "▁زهک": 5996,
    "▁استارت": 5997,
    "▁فهمید": 5998,
    "▁فهم": 5999,
    "▁جلال": 6000,
    "▁زانو": 6001,
    "▁ایوان": 6002,
    "▁گلپا": 6003,
    "▁دژ": 6004,
    "▁کینه": 6005,
    "▁دلسوز": 6006,
    "▁2600": 6007,
    "▁زارع": 6008,
    "▁عاید": 6009,
    "▁کاظمی": 6010,
    "▁پروف": 6011,
    "▁میدادیم": 6012,
    "▁04": 6013,
    "زامبی": 6014,
    "▁نمیزن": 6015,
    "▁آگو": 6016,
    "بسته": 6017,
    "▁تراک": 6018,
    "▁موکل": 6019,
    "▁غرو": 6020,
    "گزیده": 6021,
    "▁خلاق": 6022,
    "▁مکانیک": 6023,
    "▁گیت": 6024,
    "اقل": 6025,
    "جعبه": 6026,
    "▁بمانی": 6027,
    "▁شمس": 6028,
    "ودیع": 6029,
    "میدانی": 6030,
    "▁بازرسان": 6031,
    "▁ماهوارهها": 6032,
    "▁عبد": 6033,
    "▁وزارتخانهها": 6034,
    "قامت": 6035,
    "▁لوگ": 6036,
    "وئید": 6037,
    "لعه": 6038,
    "یرحسین": 6039,
    "▁شوک": 6040,
    "000000": 6041,
    "پیشینه": 6042,
    "▁پسلرزهها": 6043,
    "رائ": 6044,
    "▁بویین": 6045,
    "ترال": 6046,
    "▁بیقانون": 6047,
    "▁میخوا": 6048,
    "▁01": 6049,
    "980": 6050,
    "غض": 6051,
    "750": 6052,
    "ic": 6053,
    "▁خرو": 6054,
    "680": 6055,
    "▁مسمو": 6056,
    "عماد": 6057,
    "▁ولگ": 6058,
    "▁مجرم": 6059,
    "خوانها": 6060,
    "خیل": 6061,
    "▁اندر": 6062,
    "1200": 6063,
    "سنج": 6064,
    "▁نمانده": 6065,
    "▁حاصلشدها": 6066,
    "▁حیدر": 6067,
    "▁فراگیر": 6068,
    "▁مدف": 6069,
    "ضاح": 6070,
    "عافیت": 6071,
    "Vg": 6072,
    "رآی": 6073,
    "تفاوت": 6074,
    "قدس": 6075,
    "ژورنال": 6076,
    "مقدم": 6077,
    "علنی": 6078,
    "کنسولگری": 6079,
    "خطیب": 6080,
    "کیفیت": 6081,
    "عزیز": 6082,
    "فروردین": 6083,
    "مجدد": 6084,
    "پرورش": 6085,
    "سفید": 6086,
    "برخورد": 6087,
    "news": 6088,
    "مبنی": 6089,
    "کشته": 6090,
    "واقع": 6091,
    "پاسخ": 6092,
    "گوشی": 6093,
    "نتیجه": 6094,
    "سموم": 6095,
    "رسمی": 6096,
    "ثانیه": 6097,
    "▁معاو": 6098,
    "▁طاه": 6099,
    "لیگا": 6100,
    "▁خدم": 6101,
    "▁سونو": 6102,
    "ناطق": 6103,
    "دجویان": 6104,
    "صیلی": 6105,
    "anesa": 6106,
    "▁landing": 6107,
    "▁pay": 6108,
    "▁shargh": 6109,
    "▁telegram": 6110,
    "▁آئیننامه": 6111,
    "▁آلکثیر": 6112,
    "▁آنتالیا": 6113,
    "▁اتومبیل": 6114,
    "▁اطعام": 6115,
    "▁الاجراست": 6116,
    "▁الخروج": 6117,
    "▁امیرعبداللهیان": 6118,
    "▁برافراشت": 6119,
    "▁بلاعوض": 6120,
    "؟": 6121
  }
}