{
  "src_word2id": {
    "<pad>": 0,
    "<s>": 1,
    "</s>": 2,
    "<unk>": 3,
    "▁در": 4,
    "▁و": 5,
    "▁به": 6,
    "ی": 7,
    "▁از": 8,
    "▁با": 9,
    "▁varzesh": 10,
    "▁": 11,
    "▁را": 12,
    "▁این": 13,
    "i": 14,
    "▁که": 15,
    "3": 16,
    "ه": 17,
    "▁ما": 18,
    "▁است": 19,
    "های": 20,
    "▁شد": 21,
    "▁برای": 22,
    "▁جمع": 23,
    "▁khabare": 24,
    "▁بپیوندید": 25,
    "▁لیگ": 26,
    "ان": 27,
    "▁یک": 28,
    "▁ایران": 29,
    "▁تیم": 30,
    "م": 31,
    "▁بازی": 32,
    "▁com": 33,
    "▁تا": 34,
    "▁کرد": 35,
    "ش": 36,
    "ا": 37,
    "▁بر": 38,
    "▁tarafdari": 39,
    "▁گل": 40,
    "News": 41,
    "ها": 42,
    "2020": 43,
    "ن": 44,
    "د": 45,
    "▁هم": 46,
    "▁FootFun": 47,
    "▁مقابل": 48,
    "▁ساعت": 49,
    "▁سال": 50,
    "▁استقلال": 51,
    "▁فوتبال": 52,
    "▁رو": 53,
    "▁خود": 54,
    "▁هفته": 55,
    "▁پرسپولیس": 56,
    "▁قهرمانان": 57,
    "▁Tarafdar": 58,
    "▁کرونا": 59,
    "▁1": 60,
    "▁آسیا": 61,
    "▁باشگاه": 62,
    "ode": 63,
    "▁n": 64,
    "ین": 65,
    "▁کشور": 66,
    "▁2": 67,
    "ات": 68,
    "▁دو": 69,
    "ت": 70,
    "▁اروپا": 71,
    "▁روز": 72,
    "▁اعلام": 73,
    "▁میشود": 74,
    "س": 75,
    "▁م": 76,
    "ند": 77,
    "و": 78,
    "▁news": 79,
    "ای": 80,
    "▁؟": 81,
    "▁برابر": 82,
    "▁khabar": 83,
    "▁ترکیب": 84,
    "ب": 85,
    "▁آن": 86,
    "C": 87,
    "▁ملی": 88,
    "▁Oh": 89,
    "▁parsinehnews": 90,
    "▁دیدار": 91,
    "▁هر": 92,
    "ر": 93,
    "▁دست": 94,
    "▁داد": 95,
    "▁امروز": 96,
    "▁30": 97,
    "▁خبر": 98,
    "▁Y": 99,
    "hannel": 100,
    "jc": 101,
    "▁هزار": 102,
    "▁حضور": 103,
    "▁3": 104,
    "ل": 105,
    "▁پس": 106,
    "▁بازیکن": 107,
    "For": 108,
    "▁Akhbare": 109,
    "▁ب": 110,
    "ز": 111,
    "▁0": 112,
    "▁تهران": 113,
    "▁کار": 114,
    "▁قرار": 115,
    "▁باید": 116,
    "بود": 117,
    "▁لینک": 118,
    "▁میلیون": 119,
    "یم": 120,
    "▁خواهد": 121,
    "▁ماه": 122,
    "▁فصل": 123,
    "▁اما": 124,
    "▁علی": 125,
    "▁پیش": 126,
    "▁مرحله": 127,
    "▁بعد": 128,
    "▁رئال": 129,
    "▁او": 130,
    "▁تو": 131,
    "▁اول": 132,
    "▁محمد": 133,
    "▁دارد": 134,
    "▁جدید": 135,
    "▁کرده": 136,
    "▁پایان": 137,
    "▁4": 138,
    "▁عنوان": 139,
    "▁واکسن": 140,
    "▁جام": 141,
    "▁مادرید": 142,
    "▁تومان": 143,
    "▁سه": 144,
    "▁من": 145,
    "▁نهایی": 146,
    "▁رئیس": 147,
    "▁مسابقات": 148,
    "▁اردیبهشت": 149,
    "▁دلیل": 150,
    "▁گذشته": 151,
    "▁یا": 152,
    "▁برتر": 153,
    "▁دوم": 154,
    "ید": 155,
    "▁شود": 156,
    "▁نیست": 157,
    "▁ن": 158,
    "▁دقیقه": 159,
    "▁صورت": 160,
    "ک": 161,
    "▁5": 162,
    "▁شب": 163,
    "ع": 164,
    "▁آمریکا": 165,
    "ست": 166,
    "شده": 167,
    "▁نفر": 168,
    "▁انتخابات": 169,
    "▁آ": 170,
    "▁سر": 171,
    "▁مهدی": 172,
    "▁کند": 173,
    "▁شبکه": 174,
    "▁چلسی": 175,
    "ف": 176,
    "▁رسید": 177,
    "▁قیمت": 178,
    "شدهاست": 179,
    "ار": 180,
    "▁مورد": 181,
    "▁20": 182,
    "▁می": 183,
    "▁برگزار": 184,
    "▁قهرمانی": 185,
    "▁23": 186,
    "▁جهانی": 187,
    "▁شکست": 188,
    "ال": 189,
    "▁همه": 190,
    "▁مردم": 191,
    "▁روی": 192,
    "▁هستند": 193,
    "▁وقت": 194,
    "▁بیشتر": 195,
    "▁نظر": 196,
    "توسط": 197,
    "تر": 198,
    "▁نیز": 199,
    "▁10": 200,
    "▁وزارت": 201,
    "▁فدراسیون": 202,
    "▁6": 203,
    "▁15": 204,
    "▁ال": 205,
    "▁دولت": 206,
    "▁بهترین": 207,
    "▁سرمربی": 208,
    "▁صعود": 209,
    "▁دیگر": 210,
    "▁افزایش": 211,
    "▁انجام": 212,
    "▁سی": 213,
    "▁پیروزی": 214,
    "s": 215,
    "▁بازیکنان": 216,
    "▁سوپرلیگ": 217,
    "▁اگر": 218,
    "▁21": 219,
    "▁عربستان": 220,
    "▁دور": 221,
    "▁حال": 222,
    "▁میکند": 223,
    "ترین": 224,
    "▁انتخاب": 225,
    "▁شدن": 226,
    "▁بار": 227,
    "▁سازمان": 228,
    "ور": 229,
    "▁شرکت": 230,
    "▁نتیجه": 231,
    "▁تراکتور": 232,
    "▁فولاد": 233,
    "▁وجود": 234,
    "▁چند": 235,
    "▁گروه": 236,
    "▁آنها": 237,
    "▁تاریخ": 238,
    "▁هیچ": 239,
    "▁درصد": 240,
    "▁1400": 241,
    "▁بایرن": 242,
    "ق": 243,
    "▁بارسلونا": 244,
    "▁ادامه": 245,
    "▁فینال": 246,
    "▁جمهوری": 247,
    "نی": 248,
    "▁برنامه": 249,
    "▁کنند": 250,
    "▁سوم": 251,
    "▁نام": 252,
    "▁درباره": 253,
    "▁نیمه": 254,
    "▁19": 255,
    "▁شورای": 256,
    "▁چهارم": 257,
    "▁بین": 258,
    "▁داشت": 259,
    "▁نشست": 260,
    "▁اولین": 261,
    "▁جهان": 262,
    "▁کسب": 263,
    "▁آینده": 264,
    "2021": 265,
    "▁خبری": 266,
    "▁کردند": 267,
    "ح": 268,
    "▁8": 269,
    "▁یکی": 270,
    "▁شرایط": 271,
    "▁داشته": 272,
    "▁کاهش": 273,
    "▁شهر": 274,
    "▁00": 275,
    "▁بیست": 276,
    "▁گرفت": 277,
    "▁راه": 278,
    "▁میتوان": 279,
    "▁شدند": 280,
    "▁ورزش": 281,
    "▁بدون": 282,
    "▁لیورپول": 283,
    "▁ا": 284,
    "▁وزیر": 285,
    "ام": 286,
    "▁تمام": 287,
    "▁رفت": 288,
    "▁تیمهای": 289,
    "▁زمان": 290,
    "▁برخی": 291,
    "▁وارد": 292,
    "▁ثبت": 293,
    "▁اسلامی": 294,
    "▁عرفان": 295,
    "▁قرارداد": 296,
    "▁سپاهان": 297,
    "ون": 298,
    "▁میلیارد": 299,
    "▁کل": 300,
    "▁قبل": 301,
    "▁ایرانی": 302,
    "▁نفت": 303,
    "▁ت": 304,
    "▁جدول": 305,
    "▁رسمی": 306,
    "▁بازار": 307,
    "▁دلار": 308,
    "▁جوان": 309,
    "▁بوده": 310,
    "▁مهم": 311,
    "▁گفت": 312,
    "▁بیش": 313,
    "▁استان": 314,
    "▁تست": 315,
    "▁گزارش": 316,
    "▁یوونتوس": 317,
    "▁پرداخت": 318,
    "▁آمار": 319,
    "▁مذاکرات": 320,
    "▁هند": 321,
    "گی": 322,
    "▁استفاده": 323,
    "▁سخنگو": 324,
    "▁باشد": 325,
    "▁سن": 326,
    "▁18": 327,
    "▁دریافت": 328,
    "0": 329,
    "▁بزرگ": 330,
    "▁زیر": 331,
    "▁کامل": 332,
    "▁زمین": 333,
    "▁داده": 334,
    "▁گرفته": 335,
    "▁پر": 336,
    "خ": 337,
    "▁منچسترسیتی": 338,
    "▁حاضر": 339,
    "▁چه": 340,
    "▁آزاد": 341,
    "▁بازگشت": 342,
    "▁احتمال": 343,
    "پ": 344,
    "▁9": 345,
    "▁عراق": 346,
    "▁yjc": 347,
    "▁آغاز": 348,
    "▁منچستریونایتد": 349,
    "▁برگزاری": 350,
    "▁دارند": 351,
    "▁کنیم": 352,
    "▁انگلیس": 353,
    "▁12": 354,
    "▁ع": 355,
    "▁فقط": 356,
    "گیری": 357,
    "▁مجلس": 358,
    "▁بهداشت": 359,
    "▁میکنند": 360,
    "▁مونیخ": 361,
    "▁افراد": 362,
    "▁ویروس": 363,
    "▁17": 364,
    "▁هنوز": 365,
    "▁بازیهای": 366,
    "▁توافق": 367,
    "▁وضعیت": 368,
    "▁25": 369,
    "▁باز": 370,
    "▁شنبه": 371,
    "▁کردن": 372,
    "▁بی": 373,
    "▁نه": 374,
    "▁ندارد": 375,
    "▁Far": 376,
    "▁المپیک": 377,
    "▁http": 378,
    "▁مشخص": 379,
    "▁فردا": 380,
    "▁میلان": 381,
    "انه": 382,
    "▁ستاره": 383,
    "▁رقابتهای": 384,
    "▁الاهلی": 385,
    "▁لالیگا": 386,
    "▁7": 387,
    "▁نشان": 388,
    "تا": 389,
    "▁برد": 390,
    "▁آب": 391,
    "▁اینکه": 392,
    "یت": 393,
    "8": 394,
    "▁برق": 395,
    "▁22": 396,
    "از": 397,
    "▁خارجه": 398,
    "▁توجه": 399,
    "▁گفته": 400,
    "▁آرسنال": 401,
    "▁نتایج": 402,
    "▁ستاد": 403,
    "▁اخیر": 404,
    "▁یه": 405,
    "▁رم": 406,
    "▁تر": 407,
    "▁ساله": 408,
    "▁کنید": 409,
    "▁همچنین": 410,
    "▁ح": 411,
    "▁ش": 412,
    "ج": 413,
    "▁غیر": 414,
    "▁ورزشگاه": 415,
    "▁قهرمان": 416,
    "▁خرید": 417,
    "بر": 418,
    "▁خرداد": 419,
    "▁برجام": 420,
    "e": 421,
    "▁مهر": 422,
    "▁امتیاز": 423,
    "▁حمله": 424,
    "▁رژیم": 425,
    "▁طارمی": 426,
    "▁خبرنگاران": 427,
    "▁واکسیناسیون": 428,
    "▁تولید": 429,
    "چ": 430,
    "▁ولی": 431,
    "▁تغییر": 432,
    "▁بررسی": 433,
    "▁ریاست": 434,
    "▁تعداد": 435,
    "▁موفق": 436,
    "▁آزمون": 437,
    "▁میشه": 438,
    "شدهو": 439,
    "▁معاون": 440,
    "▁قطر": 441,
    "رو": 442,
    "▁سهمیه": 443,
    "▁تصمیم": 444,
    "▁کرونای": 445,
    "▁کیلوگرم": 446,
    "گ": 447,
    "▁فروردین": 448,
    "▁تنها": 449,
    "▁موضوع": 450,
    "▁سوی": 451,
    "▁مدیر": 452,
    "▁اساس": 453,
    "▁اینتر": 454,
    "▁ریک": 455,
    "▁یافت": 456,
    "▁واکنش": 457,
    "▁کنار": 458,
    "▁طبق": 459,
    "▁بانک": 460,
    "▁پی": 461,
    "▁تمدید": 462,
    "▁یورو": 463,
    "▁پخش": 464,
    "یها": 465,
    "▁دنبال": 466,
    "▁وین": 467,
    "▁برگشت": 468,
    "یان": 469,
    "▁زاده": 470,
    "▁هواداران": 471,
    "▁حدود": 472,
    "▁مصدومیت": 473,
    "▁حذفی": 474,
    "7": 475,
    "▁همین": 476,
    "▁آقای": 477,
    "▁ورود": 478,
    "▁سری": 479,
    "▁آخرین": 480,
    "▁بسکتبال": 481,
    "▁نسبت": 482,
    "▁مسی": 483,
    "▁L": 484,
    "سازی": 485,
    "▁الدحیل": 486,
    "ط": 487,
    "▁پورتو": 488,
    "رضا": 489,
    "▁سعید": 490,
    "▁ف": 491,
    "▁خارج": 492,
    "▁سابق": 493,
    "اب": 494,
    "ص": 495,
    "▁مس": 496,
    "▁بسیار": 497,
    "▁سایت": 498,
    "▁شما": 499,
    "▁داره": 500,
    "▁پنالتی": 501,
    "▁داریم": 502,
    "▁شدید": 503,
    "▁دورتموند": 504,
    "▁محل": 505,
    "▁کشتی": 506,
    "▁خیلی": 507,
    "▁حسین": 508,
    "▁علیه": 509,
    "گر": 510,
    "▁تلاش": 511,
    "▁رونالدو": 512,
    "▁16": 513,
    "▁FootFunOnline": 514,
    "▁پیدا": 515,
    "▁زنده": 516,
    "که": 517,
    "2": 518,
    "▁رییس": 519,
    "▁جنوبی": 520,
    "▁فروش": 521,
    "fer": 522,
    "▁13": 523,
    "▁منتخ": 524,
    "▁رمضان": 525,
    "▁کمیته": 526,
    "uc": 527,
    "▁امام": 528,
    "▁روسیه": 529,
    "ول": 530,
    "▁خ": 531,
    "▁میکنیم": 532,
    "▁میدهد": 533,
    "▁سفر": 534,
    "▁ظریف": 535,
    "▁ویژه": 536,
    "ری": 537,
    "▁خصوص": 538,
    "▁سردار": 539,
    "▁ژرمن": 540,
    "▁14": 541,
    "▁دی": 542,
    "▁جو": 543,
    "▁جان": 544,
    "▁تساوی": 545,
    "▁قدس": 546,
    "▁تایید": 547,
    "لی": 548,
    "▁قرمز": 549,
    "▁11": 550,
    "▁امارات": 551,
    "▁جلسه": 552,
    "▁انقلاب": 553,
    "گان": 554,
    "▁هستیم": 555,
    "1": 556,
    "▁پول": 557,
    "▁گروهی": 558,
    "▁منطقه": 559,
    "▁خط": 560,
    "▁پ": 561,
    "▁نماینده": 562,
    "▁ارز": 563,
    "▁همراه": 564,
    "▁2021": 565,
    "▁رکورد": 566,
    "دار": 567,
    "▁داور": 568,
    "▁طرح": 569,
    "▁امشب": 570,
    "▁چهار": 571,
    "▁ویدیو": 572,
    "▁پیشنهاد": 573,
    "▁قانون": 574,
    "▁خانه": 575,
    "6": 576,
    "▁نا": 577,
    "ده": 578,
    "▁مهاجم": 579,
    "▁نمی": 580,
    "▁مدال": 581,
    "a": 582,
    "▁بود": 583,
    "▁الریان": 584,
    "▁اروپایی": 585,
    "▁میشوند": 586,
    "▁طی": 587,
    "▁حسینی": 588,
    "d": 589,
    "▁اون": 590,
    "▁RGH": 591,
    "▁بیمارستان": 592,
    "▁اصلی": 593,
    "یک": 594,
    "▁نگهبان": 595,
    "▁حذف": 596,
    "▁کمک": 597,
    "زاده": 598,
    "▁صفر": 599,
    "بی": 600,
    "▁چرا": 601,
    "▁مرکزی": 602,
    "غ": 603,
    "▁سایپا": 604,
    "▁24": 605,
    "▁تاتنهام": 606,
    "▁نزدیک": 607,
    "▁خوب": 608,
    "▁آمریکایی": 609,
    "▁اقدام": 610,
    "▁عجیب": 611,
    "▁روند": 612,
    "▁مسابقه": 613,
    "▁مدافع": 614,
    "نگ": 615,
    "▁امید": 616,
    "▁بخش": 617,
    "▁مربی": 618,
    "▁مشکل": 619,
    "▁روحانی": 620,
    "را": 621,
    "▁امیر": 622,
    "▁پرونده": 623,
    "▁پاس": 624,
    "▁بالا": 625,
    "▁نساجی": 626,
    "▁همچن": 627,
    "▁چین": 628,
    "▁ترین": 629,
    "▁پور": 630,
    "▁حمایت": 631,
    "▁واحد": 632,
    "▁دل": 633,
    "▁سیتی": 634,
    "▁60": 635,
    "▁کم": 636,
    "▁میان": 637,
    "▁خارجی": 638,
    "▁لغو": 639,
    "▁پلیس": 640,
    "اک": 641,
    "▁حتی": 642,
    "▁سید": 643,
    "مان": 644,
    "4": 645,
    "اش": 646,
    "▁مرکز": 647,
    "آ": 648,
    "▁کمتر": 649,
    "▁هشتم": 650,
    "▁اعضای": 651,
    "▁کنه": 652,
    "▁طلا": 653,
    "▁نقل": 654,
    "▁اقتصادی": 655,
    "▁میدان": 656,
    "▁پنجم": 657,
    "▁امور": 658,
    "▁مت": 659,
    "▁شمال": 660,
    "▁دنیا": 661,
    "▁عضو": 662,
    "▁پارسینه": 663,
    "گاه": 664,
    "▁مجیدی": 665,
    "▁نو": 666,
    "▁مثل": 667,
    "▁H": 668,
    "▁مثبت": 669,
    "▁النصر": 670,
    "▁منفی": 671,
    "▁رهبر": 672,
    "ض": 673,
    "▁هیات": 674,
    "▁باد": 675,
    "▁راهی": 676,
    "▁انتقال": 677,
    "کل": 678,
    "▁یوفا": 679,
    "▁خواهدبود": 680,
    "▁میکنم": 681,
    "▁آهن": 682,
    "▁آماده": 683,
    "▁فرد": 684,
    "▁سیاست": 685,
    "▁احمد": 686,
    "▁دیدارهای": 687,
    "▁50": 688,
    "کننده": 689,
    "▁پیشبینی": 690,
    "▁اس": 691,
    "▁نگاه": 692,
    "▁عمومی": 693,
    "▁لا": 694,
    "▁تن": 695,
    "ود": 696,
    "▁آل": 697,
    "▁100": 698,
    "▁الشرطه": 699,
    "▁عملکرد": 700,
    "▁هستهای": 701,
    "▁اجتماعی": 702,
    "اند": 703,
    "▁باشگاههای": 704,
    "اس": 705,
    "▁بینالمللی": 706,
    "▁صحبتهای": 707,
    "▁www": 708,
    "▁45": 709,
    "شان": 710,
    "▁تمرین": 711,
    "فت": 712,
    "▁گلزنی": 713,
    "▁اسرائیل": 714,
    "▁حق": 715,
    "به": 716,
    "▁مرگ": 717,
    "▁نیروهای": 718,
    "▁پیکان": 719,
    "در": 720,
    "▁مدت": 721,
    "▁میلاد": 722,
    "▁رضا": 723,
    "▁گوا": 724,
    "▁کمیسیون": 725,
    "▁حالا": 726,
    "▁تک": 727,
    "▁رد": 728,
    "▁AFC": 729,
    "▁جریمه": 730,
    "ایی": 731,
    "▁اتحادیه": 732,
    "▁میزان": 733,
    "وف": 734,
    "▁خوزستان": 735,
    "▁برتری": 736,
    "▁خودرو": 737,
    "▁خواهند": 738,
    "▁زن": 739,
    "چه": 740,
    "▁اخراج": 741,
    "▁تزریق": 742,
    "▁ذوب": 743,
    "▁ورزشی": 744,
    "▁نرخ": 745,
    "▁سکه": 746,
    "▁لیست": 747,
    "یا": 748,
    "▁درخواست": 749,
    "▁سیاسی": 750,
    "▁اصفهان": 751,
    "▁عکس": 752,
    "▁پزشکی": 753,
    "▁فکر": 754,
    "▁بد": 755,
    "▁استانهای": 756,
    "▁نیاز": 757,
    "▁د": 758,
    "یل": 759,
    "▁مصرف": 760,
    "▁دیگه": 761,
    "▁هندی": 762,
    "▁آلمان": 763,
    "اری": 764,
    "▁کسی": 765,
    "کار": 766,
    "▁صهیونیستی": 767,
    "▁آتش": 768,
    "▁قرنطینه": 769,
    "▁شروع": 770,
    "▁منچستر": 771,
    "▁اعتراض": 772,
    "▁مقام": 773,
    "وس": 774,
    "▁سمت": 775,
    "وم": 776,
    "▁دوره": 777,
    "5": 778,
    "▁فرهاد": 779,
    "▁ترکیه": 780,
    "▁ق": 781,
    "▁جای": 782,
    "▁کردهاند": 783,
    "o": 784,
    "▁ایتالیا": 785,
    "▁باعث": 786,
    "▁جریان": 787,
    "▁حسن": 788,
    "▁انتظار": 789,
    "▁هست": 790,
    "هایی": 791,
    "وش": 792,
    "▁حساب": 793,
    "▁گفتوگو": 794,
    "▁صد": 795,
    "▁پا": 796,
    "یه": 797,
    "▁هدف": 798,
    "▁بورس": 799,
    "▁تعطیل": 800,
    "▁بیماری": 801,
    "▁محمدی": 802,
    "▁سخت": 803,
    "▁سقوط": 804,
    "▁مختلف": 805,
    "مون": 806,
    "▁حریف": 807,
    "▁روزنامه": 808,
    "▁90": 809,
    "▁باخت": 810,
    "زش": 811,
    "▁مناطق": 812,
    "▁کنفدراسیون": 813,
    "▁میکنه": 814,
    "h": 815,
    "▁باشند": 816,
    "▁پنج": 817,
    "▁ترک": 818,
    "▁میزبان": 819,
    "▁الوحده": 820,
    "▁البرز": 821,
    "▁لازم": 822,
    "▁کو": 823,
    "t": 824,
    "▁امسال": 825,
    "▁اطلاعات": 826,
    "کا": 827,
    "اد": 828,
    "▁لژیونرها": 829,
    "▁شدهبود": 830,
    "▁کریمی": 831,
    "▁زیادی": 832,
    "کس": 833,
    "▁دادند": 834,
    "▁منابع": 835,
    "▁ممکن": 836,
    "l": 837,
    "شون": 838,
    "فر": 839,
    "▁اینجا": 840,
    "▁خودش": 841,
    "▁اخبار": 842,
    "▁آموزش": 843,
    "▁نبود": 844,
    "▁کرمان": 845,
    "▁کارت": 846,
    "تون": 847,
    "▁آخر": 848,
    "▁خورد": 849,
    "▁ممنوع": 850,
    "▁معرفی": 851,
    "▁ماشینسازی": 852,
    "▁پاسخ": 853,
    "▁تبدیل": 854,
    "▁قصد": 855,
    "نا": 856,
    "▁نیروی": 857,
    "▁مدعی": 858,
    "▁صبح": 859,
    "▁تاکنون": 860,
    "▁دوباره": 861,
    "▁مدیریت": 862,
    "▁وقتی": 863,
    "تی": 864,
    "▁بالای": 865,
    "▁قطعی": 866,
    "▁صنعت": 867,
    "▁رقابت": 868,
    "شت": 869,
    "▁انتشار": 870,
    "▁ایجاد": 871,
    "▁نوشت": 872,
    "▁سامانه": 873,
    "داد": 874,
    "▁40": 875,
    "▁شدهاند": 876,
    "▁منتشر": 877,
    "▁ها": 878,
    "▁مبتلا": 879,
    "▁گفتگو": 880,
    "وی": 881,
    "▁بسته": 882,
    "سی": 883,
    "▁دومین": 884,
    "▁بودن": 885,
    "وع": 886,
    "▁مبلغ": 887,
    "▁میرسد": 888,
    "▁محمدرضا": 889,
    "▁ابراهیم": 890,
    "▁رقابتها": 891,
    "▁مورینیو": 892,
    "▁زد": 893,
    "▁برخورد": 894,
    "▁وزن": 895,
    "▁پرتغال": 896,
    "▁روزهای": 897,
    "▁خراسان": 898,
    "▁کرونایی": 899,
    "▁حداقل": 900,
    "▁قرن": 901,
    "ms": 902,
    "▁پاری": 903,
    "▁ملت": 904,
    "▁موشک": 905,
    "▁الان": 906,
    "لا": 907,
    "هزار": 908,
    "▁کردیم": 909,
    "▁مجازی": 910,
    "▁رعایت": 911,
    "کو": 912,
    "▁مراسم": 913,
    "▁شاگردان": 914,
    "▁دفاع": 915,
    "▁میزبانی": 916,
    "▁چون": 917,
    "▁غرب": 918,
    "▁اتفاق": 919,
    "▁شهید": 920,
    "▁مرد": 921,
    "▁فارس": 922,
    "▁تامین": 923,
    "▁عید": 924,
    "▁نخست": 925,
    "▁ارسال": 926,
    "▁رسانهها": 927,
    "▁زده": 928,
    "▁سوپر": 929,
    "نده": 930,
    "▁جلو": 931,
    "▁ارزش": 932,
    "▁مو": 933,
    "▁بوندسلیگا": 934,
    "▁علت": 935,
    "▁شوند": 936,
    "لو": 937,
    "▁رخ": 938,
    "▁35": 939,
    "▁زیدان": 940,
    "▁پشت": 941,
    "▁فرصت": 942,
    "▁شهرداری": 943,
    "▁رسیده": 944,
    "▁عباس": 945,
    "▁حرفهای": 946,
    "▁زندگی": 947,
    "▁اثر": 948,
    "▁سطح": 949,
    "▁هوایی": 950,
    "▁تمامی": 951,
    "▁ری": 952,
    "▁لو": 953,
    "▁امنیت": 954,
    "▁والیبال": 955,
    "▁جنگ": 956,
    "ث": 957,
    "9": 958,
    "▁مشکلات": 959,
    "▁اجازه": 960,
    "▁آلومینیوم": 961,
    "▁ر": 962,
    "▁بارش": 963,
    "▁سود": 964,
    "▁دانشگاه": 965,
    "▁خوبی": 966,
    "▁ج": 967,
    "▁فطر": 968,
    "n": 969,
    "▁فنی": 970,
    "▁ابتلا": 971,
    "▁دوشنبه": 972,
    "▁هزینه": 973,
    "▁TG": 974,
    "▁خروج": 975,
    "▁فرانسه": 976,
    "▁شرق": 977,
    "▁فلسطین": 978,
    "▁تحریمها": 979,
    "▁هافبک": 980,
    "▁تحت": 981,
    "▁فوق": 982,
    "▁حل": 983,
    "▁جمعه": 984,
    "▁نخواهد": 985,
    "اف": 986,
    "▁یکم": 987,
    "▁حام": 988,
    "▁تصاویر": 989,
    "▁همیشه": 990,
    "با": 991,
    "پور": 992,
    "▁بیانیه": 993,
    "▁ویدئو": 994,
    "▁نمیتوان": 995,
    "▁طریق": 996,
    "▁پایانی": 997,
    "▁مصوبه": 998,
    "یس": 999,
    "▁آبی": 1000,
    "▁گ": 1001,
    "▁سلیمانی": 1002,
    "▁یونایتد": 1003,
    "▁جالب": 1004,
    "▁رشد": 1005,
    "▁فضای": 1006,
    "▁27": 1007,
    "▁حالی": 1008,
    "▁شرقی": 1009,
    "▁داخل": 1010,
    "نت": 1011,
    "▁دبیر": 1012,
    "دن": 1013,
    "▁رگبار": 1014,
    "▁ارائه": 1015,
    "ئ": 1016,
    "▁99": 1017,
    "▁چ": 1018,
    "▁آذربایجان": 1019,
    "▁دچار": 1020,
    "▁بارسا": 1021,
    "▁انگلیسی": 1022,
    "▁دربی": 1023,
    "روز": 1024,
    "▁تیمش": 1025,
    "▁Footfun": 1026,
    "▁رتبه": 1027,
    "▁دعا": 1028,
    "▁کشورمان": 1029,
    "ذ": 1030,
    "▁یکشنبه": 1031,
    "▁کانال": 1032,
    "▁صحبت": 1033,
    "▁عملیات": 1034,
    "بودند": 1035,
    "▁مذاکره": 1036,
    "▁افغانستان": 1037,
    "▁فرمانده": 1038,
    "▁توخل": 1039,
    "▁آبادان": 1040,
    "▁اینستاگرام": 1041,
    "f": 1042,
    "▁الهلال": 1043,
    "▁حرکت": 1044,
    "▁سوریه": 1045,
    "▁شماره": 1046,
    "انی": 1047,
    "▁ای": 1048,
    "اق": 1049,
    "▁دستور": 1050,
    "▁جهت": 1051,
    "▁خبرفوری": 1052,
    "▁200": 1053,
    "▁برترین": 1054,
    "▁ردهبندی": 1055,
    "▁شهرستان": 1056,
    "▁داخلی": 1057,
    "▁جدی": 1058,
    "▁نظام": 1059,
    "▁دادن": 1060,
    "▁صدر": 1061,
    "▁محسن": 1062,
    "▁جمله": 1063,
    "▁حکم": 1064,
    "بندی": 1065,
    "عدم": 1066,
    "▁فیلم": 1067,
    "▁تمرینات": 1068,
    "▁چیزی": 1069,
    "▁شهرهای": 1070,
    "▁انفجار": 1071,
    "▁مربوط": 1072,
    "▁قدر": 1073,
    "▁خواست": 1074,
    "▁شیو": 1075,
    "▁رسانه": 1076,
    "▁خاطر": 1077,
    "▁رسیدن": 1078,
    "دو": 1079,
    "▁کووید": 1080,
    "▁مصاحبه": 1081,
    "▁پست": 1082,
    "▁رئیسی": 1083,
    "▁26": 1084,
    "▁فر": 1085,
    "▁هیئت": 1086,
    "▁حادثه": 1087,
    "▁تردد": 1088,
    "▁پیام": 1089,
    "▁ک": 1090,
    "▁نهم": 1091,
    "▁مازندران": 1092,
    "▁پنجشنبه": 1093,
    "▁ژاپن": 1094,
    "▁طرف": 1095,
    "▁کشورهای": 1096,
    "▁مورت": 1097,
    "▁هشدار": 1098,
    "▁ir": 1099,
    "▁فعالیت": 1100,
    "▁بهطور": 1101,
    "▁آزادی": 1102,
    "▁جدا": 1103,
    "▁اشتباه": 1104,
    "▁WV": 1105,
    "▁پدیده": 1106,
    "▁معدن": 1107,
    "▁باشیم": 1108,
    "▁همکاری": 1109,
    "▁گو": 1110,
    "▁صادر": 1111,
    "▁تاثیر": 1112,
    "▁مشترک": 1113,
    "▁البته": 1114,
    "▁شکایت": 1115,
    "▁کادر": 1116,
    "▁سنگین": 1117,
    "▁همان": 1118,
    "▁ضربه": 1119,
    "▁دارو": 1120,
    "▁هالند": 1121,
    "▁ادعای": 1122,
    "▁حقوق": 1123,
    "اگه": 1124,
    "▁بعدی": 1125,
    "▁امکان": 1126,
    "▁اسپانیا": 1127,
    "▁چنین": 1128,
    "▁ببینید": 1129,
    "▁اردوی": 1130,
    "▁مجموع": 1131,
    "▁قابل": 1132,
    "▁دسته": 1133,
    "▁دستگاه": 1134,
    "▁کریم": 1135,
    "▁ساخت": 1136,
    "▁مدیرعامل": 1137,
    "▁گواردیولا": 1138,
    "▁کسانی": 1139,
    "▁رعد": 1140,
    "▁نمایندگان": 1141,
    "▁جز": 1142,
    "▁میکرد": 1143,
    "▁80": 1144,
    "▁نژاد": 1145,
    "▁محمود": 1146,
    "▁تشکیل": 1147,
    "▁جذب": 1148,
    "▁زنیت": 1149,
    "▁مع": 1150,
    "شو": 1151,
    "▁مدیران": 1152,
    "▁قم": 1153,
    "▁مصدوم": 1154,
    "گو": 1155,
    "▁یافته": 1156,
    "▁پپ": 1157,
    "▁خبرنگار": 1158,
    "▁اف": 1159,
    "▁توپ": 1160,
    "نشدهاست": 1161,
    "▁محروم": 1162,
    "▁هدایت": 1163,
    "▁سعودی": 1164,
    "▁خانگی": 1165,
    "▁مالی": 1166,
    "▁باران": 1167,
    "▁فوری": 1168,
    "▁مغ": 1169,
    "ما": 1170,
    "▁راموس": 1171,
    "▁ترابی": 1172,
    "▁میر": 1173,
    "▁شکل": 1174,
    "▁مسیر": 1175,
    "▁تعیین": 1176,
    "▁ثانیه": 1177,
    "▁مغانلو": 1178,
    "▁شیخ": 1179,
    "تو": 1180,
    "▁یاد": 1181,
    "کی": 1182,
    "▁چمپیونزلیگ": 1183,
    "▁جا": 1184,
    "▁جوانان": 1185,
    "▁زرد": 1186,
    "دی": 1187,
    "صاف": 1188,
    "زن": 1189,
    "▁زمانی": 1190,
    "یچ": 1191,
    "رز": 1192,
    "▁چهارشنبه": 1193,
    "▁کاپیتان": 1194,
    "▁شناسایی": 1195,
    "m": 1196,
    "▁لحظه": 1197,
    "▁پرواز": 1198,
    "▁احس": 1199,
    "▁کی": 1200,
    "▁سپاه": 1201,
    "سون": 1202,
    "ژ": 1203,
    "▁آتالانتا": 1204,
    "▁درآمد": 1205,
    "▁جزیره": 1206,
    "▁مبارک": 1207,
    "▁اقدامات": 1208,
    "▁خواهیم": 1209,
    "▁نمیشود": 1210,
    "▁حوزه": 1211,
    "▁گهر": 1212,
    "▁جدایی": 1213,
    "▁مقاومت": 1214,
    "بار": 1215,
    "▁ابر": 1216,
    "باید": 1217,
    "رد": 1218,
    "y": 1219,
    "▁پای": 1220,
    "▁بایدن": 1221,
    "▁اختیار": 1222,
    "▁ساختمان": 1223,
    "▁پدر": 1224,
    "▁بهداشتی": 1225,
    "▁میتون": 1226,
    "▁t": 1227,
    "وری": 1228,
    "▁W": 1229,
    "▁خانواده": 1230,
    "▁قربانی": 1231,
    "▁کشته": 1232,
    "▁ماسک": 1233,
    "▁مبارزه": 1234,
    "▁آمده": 1235,
    "▁دوست": 1236,
    "▁دهد": 1237,
    "خواهی": 1238,
    "▁چک": 1239,
    "▁مقایسه": 1240,
    "▁رقم": 1241,
    "▁پایگاه": 1242,
    "▁WW": 1243,
    "▁نیمار": 1244,
    "▁یع": 1245,
    "▁طرفداری": 1246,
    "خت": 1247,
    "شدهدر": 1248,
    "▁پرز": 1249,
    "▁تیر": 1250,
    "▁نداشته": 1251,
    "علی": 1252,
    "▁فعال": 1253,
    "▁ترتیب": 1254,
    "▁فیفا": 1255,
    "▁عمر": 1256,
    "بل": 1257,
    "▁محرومیت": 1258,
    "▁اتلتیکو": 1259,
    "▁درمان": 1260,
    "کن": 1261,
    "▁اضافه": 1262,
    "▁ثمر": 1263,
    "▁مقدمات": 1264,
    "▁حمید": 1265,
    "▁نقش": 1266,
    "▁شهریار": 1267,
    "▁جاری": 1268,
    "▁قدرت": 1269,
    "▁صلاحیت": 1270,
    "▁شمالی": 1271,
    "▁ارتباط": 1272,
    "▁اتلتیکومادرید": 1273,
    "▁جایگاه": 1274,
    "▁خوش": 1275,
    "▁برنده": 1276,
    "▁کره": 1277,
    "کر": 1278,
    "▁صوتی": 1279,
    "▁الله": 1280,
    "▁جی": 1281,
    "▁ده": 1282,
    "▁خدا": 1283,
    "یر": 1284,
    "شاید": 1285,
    "▁جمهور": 1286,
    "▁بیمار": 1287,
    "an": 1288,
    "▁یو": 1289,
    "▁ناپولی": 1290,
    "نه": 1291,
    "▁آستان": 1292,
    "▁تماس": 1293,
    "g": 1294,
    "▁28": 1295,
    "▁اجرای": 1296,
    "▁زنان": 1297,
    "▁مجدد": 1298,
    "▁رفع": 1299,
    "▁عبدالله": 1300,
    "▁گلزن": 1301,
    "▁حرف": 1302,
    "پا": 1303,
    "▁زدن": 1304,
    "وز": 1305,
    "▁چیز": 1306,
    "▁رده": 1307,
    "▁پرمیرلیگ": 1308,
    "▁مجوز": 1309,
    "▁مسکن": 1310,
    "▁دولتی": 1311,
    "▁سویا": 1312,
    "▁نامزدهای": 1313,
    "▁بیماران": 1314,
    "▁رسم": 1315,
    "اساس": 1316,
    "▁امباپه": 1317,
    "▁اکنون": 1318,
    "▁گران": 1319,
    "▁ثبتنام": 1320,
    "یز": 1321,
    "▁بدن": 1322,
    "c": 1323,
    "نو": 1324,
    "▁گرم": 1325,
    "▁س": 1326,
    "▁سا": 1327,
    "▁نیم": 1328,
    "▁فوت": 1329,
    "▁محکوم": 1330,
    "▁FootFunVideo": 1331,
    "▁آسیب": 1332,
    "▁بشه": 1333,
    "▁مواد": 1334,
    "▁بودجه": 1335,
    "▁70": 1336,
    "▁دقیق": 1337,
    "▁سهام": 1338,
    "▁حاج": 1339,
    "▁آزمایش": 1340,
    "▁معتبر": 1341,
    "▁نارنجی": 1342,
    "▁فایل": 1343,
    "▁درصدی": 1344,
    "لوب": 1345,
    "▁فلیک": 1346,
    "وان": 1347,
    "▁اعمال": 1348,
    "▁توکیو": 1349,
    "▁فوتفان": 1350,
    "▁وحید": 1351,
    "▁افتاد": 1352,
    "▁مالیات": 1353,
    "▁نوع": 1354,
    "▁فاصله": 1355,
    "▁مسئولان": 1356,
    "▁B": 1357,
    "گز": 1358,
    "▁واردات": 1359,
    "▁قانونی": 1360,
    "▁خلاصه": 1361,
    "▁مطرح": 1362,
    "▁روابط": 1363,
    "▁عالی": 1364,
    "▁بیرون": 1365,
    "▁میرود": 1366,
    "▁داوطلبان": 1367,
    "▁غربی": 1368,
    "▁500": 1369,
    "▁سرپرست": 1370,
    "▁تحریمهای": 1371,
    "▁مسجد": 1372,
    "حفظ": 1373,
    "▁نشد": 1374,
    "ریا": 1375,
    "▁ظهر": 1376,
    "▁نداریم": 1377,
    "▁السد": 1378,
    "▁بازداشت": 1379,
    "▁امتحانات": 1380,
    "▁رفسنجان": 1381,
    "▁گلهای": 1382,
    "▁عمل": 1383,
    "▁زیاد": 1384,
    "▁بستری": 1385,
    "▁آمد": 1386,
    "وین": 1387,
    "▁سپ": 1388,
    "سر": 1389,
    "▁خطر": 1390,
    "gram": 1391,
    "▁شانس": 1392,
    "▁نخستین": 1393,
    "▁امنیتی": 1394,
    "وا": 1395,
    "گل": 1396,
    "ره": 1397,
    "▁سو": 1398,
    "▁جمعیت": 1399,
    "▁C": 1400,
    "▁بحرین": 1401,
    "▁کنترل": 1402,
    "▁موجود": 1403,
    "▁تجربه": 1404,
    "▁احیا": 1405,
    "▁واقع": 1406,
    "▁گرفتن": 1407,
    "▁پل": 1408,
    "▁کاری": 1409,
    "▁دعوت": 1410,
    "▁نقطه": 1411,
    "▁بحران": 1412,
    "▁عامل": 1413,
    "▁کوتاه": 1414,
    "▁تاکید": 1415,
    "▁تحریم": 1416,
    "▁مردان": 1417,
    "▁کدام": 1418,
    "▁گذشت": 1419,
    "▁رساند": 1420,
    "▁2020": 1421,
    "▁انتقالات": 1422,
    "▁جواد": 1423,
    "▁اختصاصی": 1424,
    "▁وق": 1425,
    "ائ": 1426,
    "▁سامان": 1427,
    "▁غذا": 1428,
    "▁دروازه": 1429,
    "▁پایتخت": 1430,
    "▁میگیرد": 1431,
    "▁نجات": 1432,
    "▁قسمت": 1433,
    "▁موارد": 1434,
    "▁جنوب": 1435,
    "▁فکری": 1436,
    "▁31": 1437,
    "رس": 1438,
    "▁اداره": 1439,
    "▁رهبری": 1440,
    "▁دیاباته": 1441,
    "▁مشاور": 1442,
    "▁دشمن": 1443,
    "▁جهش": 1444,
    "▁قبول": 1445,
    "▁دفتر": 1446,
    "▁روزنامهها": 1447,
    "کنندگان": 1448,
    "▁تابستان": 1449,
    "▁کیلو": 1450,
    "▁هفت": 1451,
    "▁چی": 1452,
    "بند": 1453,
    "▁me": 1454,
    "▁آقا": 1455,
    "p": 1456,
    "▁درگذشت": 1457,
    "▁ایسنا": 1458,
    "▁بحث": 1459,
    "▁دکتر": 1460,
    "▁قایدی": 1461,
    "▁نامزد": 1462,
    "▁مهار": 1463,
    "▁آاس": 1464,
    "30": 1465,
    "▁پیوست": 1466,
    "▁مش": 1467,
    "▁اونا": 1468,
    "▁بهتر": 1469,
    "▁دوران": 1470,
    "▁بلژیک": 1471,
    "▁تشخیص": 1472,
    "▁هازارد": 1473,
    "▁کلوپ": 1474,
    "NBA": 1475,
    "▁دارم": 1476,
    "▁ساز": 1477,
    "▁افرادی": 1478,
    "▁مستقیم": 1479,
    "▁قاسم": 1480,
    "▁متر": 1481,
    "▁بلا": 1482,
    "▁سرخ": 1483,
    "▁یزد": 1484,
    "▁صادقی": 1485,
    "▁رفته": 1486,
    "N": 1487,
    "▁کنعانی": 1488,
    "▁insta": 1489,
    "▁کارخانه": 1490,
    "▁فرش": 1491,
    "شک": 1492,
    "▁تبریز": 1493,
    "r": 1494,
    "سال": 1495,
    "▁کن": 1496,
    "▁تجمع": 1497,
    "▁متوالی": 1498,
    "▁نیمکت": 1499,
    "▁دروازهبان": 1500,
    "▁فشار": 1501,
    "▁قوه": 1502,
    "▁پاریس": 1503,
    "▁داشتند": 1504,
    "▁پیروز": 1505,
    "▁اسپورت": 1506,
    "▁زمینه": 1507,
    "▁بزرگترین": 1508,
    "خو": 1509,
    "داری": 1510,
    "▁رضایی": 1511,
    "▁اش": 1512,
    "▁ششم": 1513,
    "▁کلی": 1514,
    "▁درخشش": 1515,
    "▁چگون": 1516,
    "▁کردهبود": 1517,
    "▁ریال": 1518,
    "▁باقی": 1519,
    "▁غ": 1520,
    "▁مادر": 1521,
    "▁طول": 1522,
    "▁نقره": 1523,
    "▁گمرک": 1524,
    "▁مرغ": 1525,
    "▁منتظر": 1526,
    "▁باشه": 1527,
    "▁شاهد": 1528,
    "ینگ": 1529,
    "▁بالاتر": 1530,
    "▁نامه": 1531,
    "▁حد": 1532,
    "▁الکلاسیکو": 1533,
    "▁انضباطی": 1534,
    "▁مسجدسلیمان": 1535,
    "k": 1536,
    "▁تصویر": 1537,
    "▁جواب": 1538,
    "▁بن": 1539,
    "▁بیا": 1540,
    "▁ابلاغ": 1541,
    "▁دادگاه": 1542,
    "▁وزنه": 1543,
    "▁کارگر": 1544,
    "▁اجرایی": 1545,
    "ماه": 1546,
    "▁دیگری": 1547,
    "▁نگران": 1548,
    "ri": 1549,
    "▁بیان": 1550,
    "▁اورتون": 1551,
    "▁پلی": 1552,
    "▁کر": 1553,
    "شم": 1554,
    "▁چشم": 1555,
    "R": 1556,
    "▁اسماعیلی": 1557,
    "▁میشد": 1558,
    "▁دانش": 1559,
    "▁تصویب": 1560,
    "▁خبرگزاری": 1561,
    "▁بخوانید": 1562,
    "▁آیا": 1563,
    "▁دریای": 1564,
    "▁عبور": 1565,
    "▁متهم": 1566,
    "▁کومان": 1567,
    "نز": 1568,
    "ران": 1569,
    "▁کارگران": 1570,
    "▁شخصی": 1571,
    "▁بو": 1572,
    "ههای": 1573,
    "▁پایه": 1574,
    "w": 1575,
    "دان": 1576,
    "▁مانده": 1577,
    "▁دید": 1578,
    "سو": 1579,
    "▁اد": 1580,
    "▁ویارئال": 1581,
    "▁فرا": 1582,
    "مانند": 1583,
    "▁نهایت": 1584,
    "▁نادر": 1585,
    "▁کنم": 1586,
    "کور": 1587,
    "▁گذاشته": 1588,
    "▁نظامی": 1589,
    "▁جنجالی": 1590,
    "▁سفارت": 1591,
    "▁مبنی": 1592,
    "▁موقعیت": 1593,
    "▁سایر": 1594,
    "▁ملک": 1595,
    "▁مقامات": 1596,
    "▁آسیایی": 1597,
    "نامه": 1598,
    "▁مناسبت": 1599,
    "▁پیگیری": 1600,
    "▁سرمایه": 1601,
    "z": 1602,
    "▁تکذیب": 1603,
    "▁لواندوفسکی": 1604,
    "▁مجتبی": 1605,
    "▁مسائل": 1606,
    "▁شاخص": 1607,
    "▁پروژه": 1608,
    "▁ندارند": 1609,
    "▁سیستان": 1610,
    "▁رنگ": 1611,
    "T": 1612,
    "گذاری": 1613,
    "v": 1614,
    "▁برنز": 1615,
    "▁تومانی": 1616,
    "▁ص": 1617,
    "سل": 1618,
    "▁کارشناسی": 1619,
    "▁نمایش": 1620,
    "▁آژانس": 1621,
    "▁رابطه": 1622,
    "▁عصر": 1623,
    "▁زبان": 1624,
    "▁پاداش": 1625,
    "▁کاراته": 1626,
    "▁نکرده": 1627,
    "▁خاص": 1628,
    "خور": 1629,
    "من": 1630,
    "جو": 1631,
    "▁گرد": 1632,
    "▁ط": 1633,
    "ha": 1634,
    "▁فراز": 1635,
    "▁اکبر": 1636,
    "▁دقایق": 1637,
    "▁ساعات": 1638,
    "▁ضمن": 1639,
    "سعود": 1640,
    "▁مانع": 1641,
    "▁مراجعه": 1642,
    "▁میده": 1643,
    "▁اساسی": 1644,
    "▁کودک": 1645,
    "▁خاک": 1646,
    "▁سیام": 1647,
    "جر": 1648,
    "پی": 1649,
    "▁دیده": 1650,
    "▁ازدواج": 1651,
    "▁متاسفانه": 1652,
    "▁کاریکاتور": 1653,
    "▁استادیوم": 1654,
    "▁بوشهر": 1655,
    "▁ویلا": 1656,
    "▁دارن": 1657,
    "یو": 1658,
    "ایل": 1659,
    "▁مد": 1660,
    "هاند": 1661,
    "▁بلوچستان": 1662,
    "▁ترامپ": 1663,
    "▁ارتش": 1664,
    "▁بتوان": 1665,
    "ته": 1666,
    "▁هنگام": 1667,
    "▁برایتون": 1668,
    "A": 1669,
    "رف": 1670,
    "▁دام": 1671,
    "پر": 1672,
    "▁دوز": 1673,
    "▁درگیری": 1674,
    "▁نشری": 1675,
    "▁خان": 1676,
    "▁آفریقایی": 1677,
    "ظ": 1678,
    "▁فلسطینی": 1679,
    "▁زودی": 1680,
    "▁ار": 1681,
    "▁متوقف": 1682,
    "▁پاختاکور": 1683,
    "علق": 1684,
    "▁کین": 1685,
    "▁بابت": 1686,
    "▁عدد": 1687,
    "▁مسئول": 1688,
    "▁احتمالا": 1689,
    "▁شجاع": 1690,
    "▁صدای": 1691,
    "▁حقوقی": 1692,
    "▁رکورددار": 1693,
    "▁قزوین": 1694,
    "▁مقرر": 1695,
    "▁کشف": 1696,
    "▁لیل": 1697,
    "▁مواجه": 1698,
    "▁قضایی": 1699,
    "کش": 1700,
    "▁چینی": 1701,
    "▁نیا": 1702,
    "▁تازه": 1703,
    "جا": 1704,
    "▁گورخر": 1705,
    "▁جانشین": 1706,
    "▁فوتسال": 1707,
    "▁مسئولیت": 1708,
    "ورد": 1709,
    "▁صحنه": 1710,
    "▁ممنوعیت": 1711,
    "▁العین": 1712,
    "▁فاز": 1713,
    "▁لک": 1714,
    "▁پایین": 1715,
    "▁نکرد": 1716,
    "▁شهروندان": 1717,
    "▁کد": 1718,
    "▁واس": 1719,
    "▁اسماعیل": 1720,
    "▁75": 1721,
    "▁اردبیل": 1722,
    "▁انتقاد": 1723,
    "▁جذاب": 1724,
    "▁علاوه": 1725,
    "▁پیاپی": 1726,
    "▁دبل": 1727,
    "▁هتل": 1728,
    "▁جامعه": 1729,
    "▁29": 1730,
    "▁بلک": 1731,
    "ساز": 1732,
    "▁درست": 1733,
    "▁بخشی": 1734,
    "▁مصوب": 1735,
    "▁اختلاف": 1736,
    "▁خلیل": 1737,
    "▁تعویق": 1738,
    "▁نقاط": 1739,
    "▁پاریسنژرمن": 1740,
    "▁میگوید": 1741,
    "▁ایرنا": 1742,
    "▁توقف": 1743,
    "▁لبنان": 1744,
    "▁خالی": 1745,
    "▁فرشاد": 1746,
    "▁هلند": 1747,
    "▁موفقیت": 1748,
    "یف": 1749,
    "▁شک": 1750,
    "▁حضوری": 1751,
    "طور": 1752,
    "▁موقت": 1753,
    "▁بده": 1754,
    "▁طلایی": 1755,
    "▁دهند": 1756,
    "▁NBA": 1757,
    "▁ترافیک": 1758,
    "▁منتقل": 1759,
    "▁میگویند": 1760,
    "▁رشید": 1761,
    "▁تهدید": 1762,
    "▁نداره": 1763,
    "▁فرج": 1764,
    "گونه": 1765,
    "▁آسمان": 1766,
    "▁میدهند": 1767,
    "▁بیل": 1768,
    "u": 1769,
    "▁قطعا": 1770,
    "مین": 1771,
    "▁خون": 1772,
    "▁اقتصاد": 1773,
    "▁ماجرای": 1774,
    "G": 1775,
    "▁تعویض": 1776,
    "▁شهادت": 1777,
    "▁تکرار": 1778,
    "▁کمالوند": 1779,
    "▁فرار": 1780,
    "▁300": 1781,
    "▁نظارت": 1782,
    "▁استعفا": 1783,
    "▁یحیی": 1784,
    "▁سفید": 1785,
    "▁مسافر": 1786,
    "▁ماشین": 1787,
    "تینو": 1788,
    "رت": 1789,
    "▁مدیره": 1790,
    "کان": 1791,
    "یابی": 1792,
    "قی": 1793,
    "ویه": 1794,
    "اع": 1795,
    "▁هستم": 1796,
    "b": 1797,
    "O": 1798,
    "▁همزمان": 1799,
    "▁ارشد": 1800,
    "▁کامبک": 1801,
    "▁حساس": 1802,
    "▁موج": 1803,
    "▁برنج": 1804,
    "▁دقیقهای": 1805,
    "▁ام": 1806,
    "▁زا": 1807,
    "▁مطهری": 1808,
    "▁مناسب": 1809,
    "بودیم": 1810,
    "▁بیمه": 1811,
    "▁دارای": 1812,
    "▁دختر": 1813,
    "▁سوال": 1814,
    "▁آتشسوزی": 1815,
    "▁آژاکس": 1816,
    "▁حداکثر": 1817,
    "▁معاملات": 1818,
    "▁مشهد": 1819,
    "▁تقابل": 1820,
    "▁شامل": 1821,
    "▁تنیس": 1822,
    "▁سوخت": 1823,
    "▁روزه": 1824,
    "▁ریزش": 1825,
    "11": 1826,
    "▁محدودیت": 1827,
    "▁سان": 1828,
    "▁داوری": 1829,
    "▁خودروهای": 1830,
    "▁مراکز": 1831,
    "▁جزئیات": 1832,
    "▁هاشمی": 1833,
    "▁جهانبخش": 1834,
    "▁گرفتند": 1835,
    "▁یزدان": 1836,
    "▁ژ": 1837,
    "▁شبانه": 1838,
    "له": 1839,
    "▁فرو": 1840,
    "▁تورم": 1841,
    "▁شمار": 1842,
    "▁بیشتری": 1843,
    "اپ": 1844,
    "▁امیری": 1845,
    "▁تلگرام": 1846,
    "▁رضوی": 1847,
    "▁میثم": 1848,
    "▁پیرلو": 1849,
    "▁پرورش": 1850,
    "▁فرودگاه": 1851,
    "▁گسترده": 1852,
    "▁باغ": 1853,
    "ستان": 1854,
    "▁اتفاقات": 1855,
    "▁مر": 1856,
    "میر": 1857,
    "▁رفتن": 1858,
    "▁آورد": 1859,
    "▁داشتن": 1860,
    "▁نادری": 1861,
    "▁توییت": 1862,
    "▁120": 1863,
    "▁اجرا": 1864,
    "▁بعضی": 1865,
    "▁ازبکستان": 1866,
    "▁پرتاب": 1867,
    "▁دیشب": 1868,
    "▁متحد": 1869,
    "حتما": 1870,
    "▁نیازمند": 1871,
    "▁لی": 1872,
    "▁ه": 1873,
    "بو": 1874,
    "▁بیستم": 1875,
    "▁ره": 1876,
    "▁مصطف": 1877,
    "▁تسهیل": 1878,
    "▁علوم": 1879,
    "▁کلیه": 1880,
    "▁متفاوت": 1881,
    "▁نان": 1882,
    "▁دیوار": 1883,
    "گرد": 1884,
    "▁یمن": 1885,
    "▁بندر": 1886,
    "▁امیدوارم": 1887,
    "▁هفتم": 1888,
    "▁سریال": 1889,
    "▁واقعا": 1890,
    "▁فردی": 1891,
    "▁گزینه": 1892,
    "▁تیمی": 1893,
    "▁داشتیم": 1894,
    "▁گر": 1895,
    "▁وام": 1896,
    "▁سیدجلال": 1897,
    "▁تعلیق": 1898,
    "▁عراقچی": 1899,
    "▁نعمتی": 1900,
    "عظم": 1901,
    "▁تیراندازی": 1902,
    "نشده": 1903,
    "▁موسوی": 1904,
    "▁شکر": 1905,
    "▁ساحلی": 1906,
    "▁راحت": 1907,
    "▁آماد": 1908,
    "▁تلفن": 1909,
    "اوی": 1910,
    "خواه": 1911,
    "▁مظاهری": 1912,
    "▁منظور": 1913,
    "▁واشنگتن": 1914,
    "▁بانوان": 1915,
    "▁تلخ": 1916,
    "▁حزب": 1917,
    "▁اراک": 1918,
    "▁پوش": 1919,
    "▁تحقیقات": 1920,
    "▁عارف": 1921,
    "صورت": 1922,
    "بین": 1923,
    "▁کا": 1924,
    "جه": 1925,
    "▁امضا": 1926,
    "▁بهانه": 1927,
    "▁امتیازی": 1928,
    "▁اوکراین": 1929,
    "▁شایعات": 1930,
    "▁سبز": 1931,
    "▁قوانین": 1932,
    "▁میخواهد": 1933,
    "▁عدالت": 1934,
    "▁لاتزیو": 1935,
    "▁کیفیت": 1936,
    "▁روایت": 1937,
    "بان": 1938,
    "▁دبیرکل": 1939,
    "▁صادق": 1940,
    "▁منجر": 1941,
    "▁پیک": 1942,
    "▁2022": 1943,
    "19": 1944,
    "▁دا": 1945,
    "▁صدا": 1946,
    "▁42": 1947,
    "▁اسم": 1948,
    "▁انرژی": 1949,
    "▁مسلح": 1950,
    "▁پیراهن": 1951,
    "▁العاده": 1952,
    "▁سلامت": 1953,
    "▁عنا": 1954,
    "▁مسکو": 1955,
    "▁پسر": 1956,
    "شناس": 1957,
    "▁حالت": 1958,
    "▁نیستند": 1959,
    "▁استاد": 1960,
    "▁سیاه": 1961,
    "▁گروههای": 1962,
    "▁تیمها": 1963,
    "▁بانکها": 1964,
    "زبی": 1965,
    "▁عبدال": 1966,
    "▁تحویل": 1967,
    "▁معوقه": 1968,
    "▁صفحه": 1969,
    "▁نایب": 1970,
    "▁رایگان": 1971,
    "امین": 1972,
    "▁استون": 1973,
    "L": 1974,
    "درصد": 1975,
    "▁مدرسه": 1976,
    "ar": 1977,
    "▁آف": 1978,
    "▁هوادار": 1979,
    "بک": 1980,
    "▁فی": 1981,
    "▁صهیونیستها": 1982,
    "وت": 1983,
    "▁گاه": 1984,
    "▁امین": 1985,
    "▁34": 1986,
    "▁ایستگاه": 1987,
    "▁توزیع": 1988,
    "▁خدمات": 1989,
    "▁قالیباف": 1990,
    "▁نیمهنهایی": 1991,
    "▁توماس": 1992,
    "▁عمد": 1993,
    "▁اشاره": 1994,
    "▁400": 1995,
    "▁سیل": 1996,
    "▁آگاه": 1997,
    "▁هوا": 1998,
    "▁هشت": 1999,
    "▁آباد": 2000,
    "▁کشی": 2001,
    "▁هماهنگی": 2002,
    "▁راستا": 2003,
    "▁برنامههای": 2004,
    "▁روح": 2005,
    "▁نداشت": 2006,
    "▁پوشان": 2007,
    "▁مبتلای": 2008,
    "▁الم": 2009,
    "▁میکنن": 2010,
    "▁اولیه": 2011,
    "است": 2012,
    "▁رئالمادرید": 2013,
    "▁سهشنبه": 2014,
    "▁میخواد": 2015,
    "▁فلورن": 2016,
    "▁لباس": 2017,
    "▁33": 2018,
    "▁شلیک": 2019,
    "▁کوچک": 2020,
    "▁کجا": 2021,
    "زاد": 2022,
    "▁آرش": 2023,
    "▁ستار": 2024,
    "▁32": 2025,
    "▁برداشت": 2026,
    "▁نامهای": 2027,
    "▁محور": 2028,
    "▁سنگ": 2029,
    "▁قطع": 2030,
    "▁کارشناس": 2031,
    "▁پرسپولیسیها": 2032,
    "▁عزیزی": 2033,
    "▁بزرگی": 2034,
    "▁انصاری": 2035,
    "▁چارچوب": 2036,
    "▁خزر": 2037,
    "▁عالیشاه": 2038,
    "▁وستهم": 2039,
    "▁دروغ": 2040,
    "▁گری": 2041,
    "▁لیونل": 2042,
    "▁جودو": 2043,
    "▁رونمایی": 2044,
    "▁شش": 2045,
    "▁زخمی": 2046,
    "▁گذاشت": 2047,
    "▁98": 2048,
    "▁اند": 2049,
    "▁ضرب": 2050,
    "▁ماده": 2051,
    "▁شهرک": 2052,
    "▁مخالف": 2053,
    "▁شاه": 2054,
    "▁کردم": 2055,
    "foo": 2056,
    "▁الشارجه": 2057,
    "▁تحلیل": 2058,
    "▁مشارکت": 2059,
    "▁سخنرانی": 2060,
    "▁عادی": 2061,
    "▁اندازه": 2062,
    "▁فرنگ": 2063,
    "▁قاره": 2064,
    "▁آنلاین": 2065,
    "▁زود": 2066,
    "F": 2067,
    "میلیون": 2068,
    "▁برترینها": 2069,
    "▁ناش": 2070,
    "سن": 2071,
    "سه": 2072,
    "▁محدودیتهای": 2073,
    "▁قبلی": 2074,
    "رک": 2075,
    "بازی": 2076,
    "▁دفاعی": 2077,
    "▁مشاهده": 2078,
    "▁انتظامی": 2079,
    "▁تاجیکستان": 2080,
    "▁رقیب": 2081,
    "▁لحاظ": 2082,
    "▁معامله": 2083,
    "▁واکسینه": 2084,
    "▁فعلا": 2085,
    "▁عهده": 2086,
    "▁درجه": 2087,
    "وار": 2088,
    "▁ابتدا": 2089,
    "▁همسر": 2090,
    "▁مجید": 2091,
    "▁دایی": 2092,
    "▁دانشجویان": 2093,
    "▁نفره": 2094,
    "▁کلین": 2095,
    "▁دما": 2096,
    "▁اشغالی": 2097,
    "▁نر": 2098,
    "ادی": 2099,
    "▁گام": 2100,
    "▁تعطیلی": 2101,
    "▁روش": 2102,
    "▁150": 2103,
    "▁پرس": 2104,
    "▁اعتبار": 2105,
    "▁محیط": 2106,
    "▁نیویورک": 2107,
    "برد": 2108,
    "▁تقریبا": 2109,
    "▁هی": 2110,
    "▁منع": 2111,
    "کشی": 2112,
    "▁صدرنشین": 2113,
    "▁کارو": 2114,
    "▁روزانه": 2115,
    "▁قرعه": 2116,
    "▁آیتالله": 2117,
    "▁سجاد": 2118,
    "▁خادم": 2119,
    "▁رافائ": 2120,
    "▁نحو": 2121,
    "▁غزه": 2122,
    "▁آدم": 2123,
    "▁کرج": 2124,
    "▁اطلاع": 2125,
    "▁بازه": 2126,
    "▁پروتکلهای": 2127,
    "▁موتور": 2128,
    "▁افت": 2129,
    "شهر": 2130,
    "▁سیستم": 2131,
    "▁راکت": 2132,
    "رب": 2133,
    "▁96": 2134,
    "▁شهردار": 2135,
    "▁اخ": 2136,
    "راحت": 2137,
    "▁نوشته": 2138,
    "▁زندان": 2139,
    "▁ات": 2140,
    "▁اکثر": 2141,
    "▁بیلبائو": 2142,
    "▁دیجیتال": 2143,
    "▁تاخیر": 2144,
    "▁نفع": 2145,
    "▁برسد": 2146,
    "▁باشید": 2147,
    "▁احساس": 2148,
    "▁ایشان": 2149,
    "▁بلند": 2150,
    "▁صدرنشینی": 2151,
    "▁موجب": 2152,
    "▁سراسر": 2153,
    "کنان": 2154,
    "جی": 2155,
    "▁تف": 2156,
    "▁نداد": 2157,
    "▁سد": 2158,
    "الله": 2159,
    "▁فارسی": 2160,
    "▁آفریقای": 2161,
    "j": 2162,
    "▁قاسمی": 2163,
    "▁هو": 2164,
    "ابی": 2165,
    "▁خدمت": 2166,
    "▁انجمن": 2167,
    "▁زلاتان": 2168,
    "▁میخواهند": 2169,
    "▁ندارم": 2170,
    "▁کاربران": 2171,
    "▁حاشیه": 2172,
    "▁آنتونیو": 2173,
    "▁فعلی": 2174,
    "▁شیر": 2175,
    "▁اسپانیایی": 2176,
    "احیه": 2177,
    "▁سلیمان": 2178,
    "▁سران": 2179,
    "▁رفتار": 2180,
    "er": 2181,
    "▁بانکی": 2182,
    "▁دستیار": 2183,
    "مند": 2184,
    "▁A": 2185,
    "▁گیر": 2186,
    "▁ائتلاف": 2187,
    "▁اعزام": 2188,
    "▁اورژانس": 2189,
    "▁نکونام": 2190,
    "▁کریستیانو": 2191,
    "▁ناصر": 2192,
    "▁نشود": 2193,
    "▁بقیه": 2194,
    "▁غایب": 2195,
    "▁واریز": 2196,
    "▁بگیرد": 2197,
    "▁کیا": 2198,
    "وط": 2199,
    "▁97": 2200,
    "▁نور": 2201,
    "▁تی": 2202,
    "▁گاز": 2203,
    "▁فضایی": 2204,
    "ایر": 2205,
    "تل": 2206,
    "▁joinc": 2207,
    "▁اتوبوس": 2208,
    "▁ارتفاع": 2209,
    "▁حملونقل": 2210,
    "▁سولسشر": 2211,
    "▁غیبت": 2212,
    "▁کافی": 2213,
    "▁کابل": 2214,
    "▁عذر": 2215,
    "▁سختی": 2216,
    "▁ماریتیمو": 2217,
    "▁کمی": 2218,
    "▁شیت": 2219,
    "▁87": 2220,
    "▁کاندیدای": 2221,
    "▁دستگیری": 2222,
    "▁متن": 2223,
    "▁نقدی": 2224,
    "▁خانم": 2225,
    "▁امر": 2226,
    "تمام": 2227,
    "مت": 2228,
    "V": 2229,
    "▁زور": 2230,
    "▁کری": 2231,
    "▁اشک": 2232,
    "▁بدهی": 2233,
    "▁پیوستن": 2234,
    "▁دستگیر": 2235,
    "▁ابتلای": 2236,
    "▁بهمن": 2237,
    "▁سریع": 2238,
    "▁بست": 2239,
    "صل": 2240,
    "▁فرزند": 2241,
    "تن": 2242,
    "▁بهره": 2243,
    "▁توضیح": 2244,
    "▁65": 2245,
    "▁سالگی": 2246,
    "▁رئیسجمهور": 2247,
    "▁لحظات": 2248,
    "▁گرانادا": 2249,
    "▁چالش": 2250,
    "▁سرطان": 2251,
    "▁مجری": 2252,
    "▁شهاب": 2253,
    "▁پنجره": 2254,
    "▁110": 2255,
    "▁دنیای": 2256,
    "داران": 2257,
    "▁مالک": 2258,
    "▁گا": 2259,
    "▁109": 2260,
    "▁ماند": 2261,
    "▁سرود": 2262,
    "▁اصلا": 2263,
    "▁پاریسن": 2264,
    "▁توانست": 2265,
    "اره": 2266,
    "▁برداری": 2267,
    "▁روشن": 2268,
    "▁انتخاباتی": 2269,
    "▁دهه": 2270,
    "▁ابراهیمی": 2271,
    "▁سابقه": 2272,
    "▁اسک": 2273,
    "▁مرز": 2274,
    "▁استقبال": 2275,
    "▁انصراف": 2276,
    "▁بغداد": 2277,
    "▁توسعه": 2278,
    "▁حاصل": 2279,
    "▁سرنوشت": 2280,
    "▁مشمول": 2281,
    "▁هدیه": 2282,
    "▁خامنهای": 2283,
    "▁ریاض": 2284,
    "▁سرعت": 2285,
    "▁شهرخودرو": 2286,
    "▁ضد": 2287,
    "▁هانس": 2288,
    "▁میلیچ": 2289,
    "▁سوئیس": 2290,
    "▁مرادی": 2291,
    "▁مساوی": 2292,
    "▁موافقت": 2293,
    "▁محمدحسین": 2294,
    "▁آموزان": 2295,
    "▁حملات": 2296,
    "▁توضیحات": 2297,
    "▁پیشرفت": 2298,
    "یون": 2299,
    "50": 2300,
    "▁خصوصی": 2301,
    "▁رسیدگی": 2302,
    "▁تلویزیونی": 2303,
    "راه": 2304,
    "▁خودروی": 2305,
    "▁پاک": 2306,
    "▁تعدادی": 2307,
    "▁میل": 2308,
    "▁نادا": 2309,
    "▁اخباری": 2310,
    "پذیر": 2311,
    "▁سند": 2312,
    "▁الوحدات": 2313,
    "▁عوامل": 2314,
    "▁مسئله": 2315,
    "▁مطمئن": 2316,
    "▁هرمزگان": 2317,
    "▁هواشناسی": 2318,
    "▁توصیه": 2319,
    "▁سمنان": 2320,
    "▁سرقت": 2321,
    "▁سرخپوشان": 2322,
    "▁سرمایهگذاری": 2323,
    "▁کنکور": 2324,
    "▁شیراز": 2325,
    "▁یووه": 2326,
    "▁صاحب": 2327,
    "داوم": 2328,
    "▁کالا": 2329,
    "خواهان": 2330,
    "روس": 2331,
    "بخش": 2332,
    "▁شجاعی": 2333,
    "▁نگرانی": 2334,
    "▁خوردن": 2335,
    "▁زندانی": 2336,
    "▁بازیها": 2337,
    "▁رستمی": 2338,
    "▁امیدوار": 2339,
    "▁همراهی": 2340,
    "▁خرم": 2341,
    "▁کیان": 2342,
    "▁کوپا": 2343,
    "▁والنسیا": 2344,
    "▁دوازدهم": 2345,
    "▁مجمع": 2346,
    "▁لندن": 2347,
    "▁تکمیل": 2348,
    "▁سیرجان": 2349,
    "▁توهین": 2350,
    "▁ظرفیت": 2351,
    "▁کریستال": 2352,
    "hat": 2353,
    "▁ببینیم": 2354,
    "▁هادی": 2355,
    "آمیز": 2356,
    "▁نسل": 2357,
    "▁محصولات": 2358,
    "▁اظهارات": 2359,
    "▁روزی": 2360,
    "al": 2361,
    "▁مخالفت": 2362,
    "▁55": 2363,
    "▁طراحی": 2364,
    "نام": 2365,
    "Y": 2366,
    "▁جلال": 2367,
    "کم": 2368,
    "▁بچه": 2369,
    "▁نظامیان": 2370,
    "وک": 2371,
    "▁خوان": 2372,
    "▁ایم": 2373,
    "گیر": 2374,
    "▁فهرست": 2375,
    "▁لایپزیگ": 2376,
    "▁کنفرانس": 2377,
    "▁میآید": 2378,
    "▁پالاس": 2379,
    "▁خسارت": 2380,
    "▁سلاح": 2381,
    "▁کشورها": 2382,
    "▁سوزی": 2383,
    "▁اتمی": 2384,
    "▁1399": 2385,
    "▁نظرسنجی": 2386,
    "▁گرگان": 2387,
    "▁کنن": 2388,
    "▁مان": 2389,
    "▁چیست": 2390,
    "▁رسول": 2391,
    "▁ابتدای": 2392,
    "▁فضا": 2393,
    "▁ارزان": 2394,
    "▁طلای": 2395,
    "▁توییتر": 2396,
    "▁گردان": 2397,
    "گذار": 2398,
    "▁برود": 2399,
    "▁نوروزی": 2400,
    "▁اتهام": 2401,
    "▁خواسته": 2402,
    "▁جاده": 2403,
    "▁صندوق": 2404,
    "▁مشاغل": 2405,
    "▁هواسکورد": 2406,
    "▁گزینش": 2407,
    "▁استخراج": 2408,
    "▁موثر": 2409,
    "▁لیدز": 2410,
    "▁آشنا": 2411,
    "▁شستا": 2412,
    "▁غفوری": 2413,
    "▁موسس": 2414,
    "▁چقدر": 2415,
    "▁پارما": 2416,
    "▁زنجان": 2417,
    "▁ایام": 2418,
    "▁متوسط": 2419,
    "▁زادگان": 2420,
    "▁علیپور": 2421,
    "▁دامنهها": 2422,
    "▁کارشناسان": 2423,
    "▁قیمتها": 2424,
    "▁کودکان": 2425,
    "▁74": 2426,
    "▁محدود": 2427,
    "▁کام": 2428,
    "▁s": 2429,
    "▁بازیگر": 2430,
    "ad": 2431,
    "▁عزیز": 2432,
    "▁فن": 2433,
    "▁مستر": 2434,
    "صد": 2435,
    "▁قزاقستان": 2436,
    "▁محموله": 2437,
    "▁نقض": 2438,
    "▁ایستاد": 2439,
    "▁حضرت": 2440,
    "▁شریف": 2441,
    "▁گلگهر": 2442,
    "▁راهاندازی": 2443,
    "▁اولویت": 2444,
    "▁علاقه": 2445,
    "▁بنزما": 2446,
    "▁سیما": 2447,
    "▁استوری": 2448,
    "▁مطالبات": 2449,
    "▁نیرو": 2450,
    "▁پو": 2451,
    "▁اسکای": 2452,
    "▁اصلاحطلبان": 2453,
    "▁ایتالیایی": 2454,
    "دام": 2455,
    "آور": 2456,
    "▁حامل": 2457,
    "▁تور": 2458,
    "▁بخشهای": 2459,
    "▁ایمان": 2460,
    "▁لژیونر": 2461,
    "▁خطا": 2462,
    "▁اومد": 2463,
    "▁سوئ": 2464,
    "کت": 2465,
    "▁مجموعه": 2466,
    "▁آرا": 2467,
    "▁38": 2468,
    "▁عد": 2469,
    "▁اعتماد": 2470,
    "▁ریاستجمهوری": 2471,
    "▁معتقد": 2472,
    "▁پهلوان": 2473,
    "▁پهپاد": 2474,
    "▁دشوار": 2475,
    "▁معروف": 2476,
    "▁نمیکند": 2477,
    "▁جسد": 2478,
    "▁کامیابی": 2479,
    "▁انوا": 2480,
    "سف": 2481,
    "▁طولانی": 2482,
    "▁تهیه": 2483,
    "▁سلامتی": 2484,
    "ئی": 2485,
    "▁ترور": 2486,
    "▁کردستان": 2487,
    "▁دهم": 2488,
    "▁هستن": 2489,
    "اران": 2490,
    "▁مجاز": 2491,
    "سط": 2492,
    "جم": 2493,
    "▁خورده": 2494,
    "▁میشن": 2495,
    "▁تصویری": 2496,
    "▁بازگشایی": 2497,
    "▁تورنمنت": 2498,
    "▁صنایع": 2499,
    "▁عابدزاده": 2500,
    "▁قرآن": 2501,
    "▁معادل": 2502,
    "▁فساد": 2503,
    "▁اسفند": 2504,
    "▁میخواهیم": 2505,
    "▁ساسولو": 2506,
    "▁تاسیس": 2507,
    "▁نصب": 2508,
    "▁شهریور": 2509,
    "▁مرداد": 2510,
    "▁اصل": 2511,
    "▁پارس": 2512,
    "▁کمال": 2513,
    "▁پیامک": 2514,
    "▁بنابرا": 2515,
    "▁پار": 2516,
    "▁زندانیان": 2517,
    "B": 2518,
    "الدین": 2519,
    "▁شرکتهای": 2520,
    "24": 2521,
    "▁تغییرات": 2522,
    "▁68": 2523,
    "▁احمدی": 2524,
    "▁71": 2525,
    "▁پیشین": 2526,
    "▁ضعیف": 2527,
    "▁اواخر": 2528,
    "▁تقویت": 2529,
    "▁تمرکز": 2530,
    "▁لیکرز": 2531,
    "▁مسدود": 2532,
    "▁کیلومتر": 2533,
    "▁سرلک": 2534,
    "▁قضاوت": 2535,
    "▁عیسی": 2536,
    "▁خمینی": 2537,
    "▁یونس": 2538,
    "▁بخاطر": 2539,
    "خره": 2540,
    "▁پیمان": 2541,
    "بودم": 2542,
    "▁خیر": 2543,
    "▁امیدواریم": 2544,
    "▁سریآ": 2545,
    "▁سم": 2546,
    "▁بیاید": 2547,
    "▁حجم": 2548,
    "▁شاهین": 2549,
    "اح": 2550,
    "▁ساده": 2551,
    "هم": 2552,
    "▁بدهد": 2553,
    "▁مذ": 2554,
    "▁حس": 2555,
    "محمد": 2556,
    "گران": 2557,
    "▁مکان": 2558,
    "am": 2559,
    "لت": 2560,
    "▁استانها": 2561,
    "▁اظهار": 2562,
    "▁مارس": 2563,
    "▁خطیبی": 2564,
    "▁مرتضی": 2565,
    "▁جبران": 2566,
    "▁نوبت": 2567,
    "▁گندم": 2568,
    "▁ضروری": 2569,
    "▁فرانسوی": 2570,
    "▁نمونه": 2571,
    "▁زک": 2572,
    "▁نکنید": 2573,
    "▁گیلان": 2574,
    "▁کاخ": 2575,
    "▁شوت": 2576,
    "باز": 2577,
    "▁چهره": 2578,
    "▁خیابان": 2579,
    "▁جم": 2580,
    "▁قول": 2581,
    "▁وحش": 2582,
    "▁لوکا": 2583,
    "▁برزیل": 2584,
    "▁66": 2585,
    "▁قائدی": 2586,
    "▁اختصاص": 2587,
    "▁گوش": 2588,
    "▁نشون": 2589,
    "▁دیر": 2590,
    "▁تروریستی": 2591,
    "هام": 2592,
    "ماتیک": 2593,
    "▁موقع": 2594,
    "▁تگرگ": 2595,
    "▁نمیکنم": 2596,
    "▁پرچم": 2597,
    "▁خواب": 2598,
    "▁باقری": 2599,
    "گانه": 2600,
    "▁دانشگر": 2601,
    "▁عرضه": 2602,
    "▁خداحافظی": 2603,
    "▁کلا": 2604,
    "▁ربا": 2605,
    "▁واگذار": 2606,
    "▁همدان": 2607,
    "▁شیرین": 2608,
    "مه": 2609,
    "▁کوین": 2610,
    "▁سیا": 2611,
    "قص": 2612,
    "▁تلویزیون": 2613,
    "▁شه": 2614,
    "▁خاصی": 2615,
    "▁محصول": 2616,
    "▁قاچاق": 2617,
    "▁FootFunCast": 2618,
    "▁ویلموتس": 2619,
    "▁قاطع": 2620,
    "▁شرط": 2621,
    "▁تبریک": 2622,
    "دلیل": 2623,
    "▁تعهدات": 2624,
    "دست": 2625,
    "▁39": 2626,
    "▁کروس": 2627,
    "▁مسلمان": 2628,
    "▁معلمان": 2629,
    "▁داوران": 2630,
    "▁مک": 2631,
    "▁نیوز": 2632,
    "بس": 2633,
    "▁دادیم": 2634,
    "▁ابری": 2635,
    "▁تصمیمات": 2636,
    "▁قضاییه": 2637,
    "▁موشکی": 2638,
    "رسانی": 2639,
    "▁خودمان": 2640,
    "▁عراقی": 2641,
    "▁سرخی": 2642,
    "▁سل": 2643,
    "▁گفتگوی": 2644,
    "▁سراسری": 2645,
    "▁چهل": 2646,
    "زه": 2647,
    "▁فعالیتهای": 2648,
    "▁اتلتیک": 2649,
    "▁صرف": 2650,
    "▁وضع": 2651,
    "▁اسکوچیچ": 2652,
    "▁صداوسیما": 2653,
    "▁طزره": 2654,
    "▁مطالعه": 2655,
    "▁تشدید": 2656,
    "▁فولام": 2657,
    "▁نوراللهی": 2658,
    "▁خراب": 2659,
    "▁برنامهریزی": 2660,
    "▁بامداد": 2661,
    "▁اسناد": 2662,
    "وویچ": 2663,
    "▁نکته": 2664,
    "▁زیرنویس": 2665,
    "▁ناراحت": 2666,
    "▁اردن": 2667,
    "▁نماز": 2668,
    "▁متوجه": 2669,
    "▁دریا": 2670,
    "▁داریو": 2671,
    "▁درگیر": 2672,
    "▁میدهیم": 2673,
    "▁37": 2674,
    "▁گوشت": 2675,
    "▁منتشرشده": 2676,
    "▁111": 2677,
    "▁دادهاند": 2678,
    "▁رسانهای": 2679,
    "▁کمبود": 2680,
    "▁تخصصی": 2681,
    "برداری": 2682,
    "▁کلاس": 2683,
    "▁اح": 2684,
    "▁مهران": 2685,
    "▁جعفری": 2686,
    "دل": 2687,
    "▁خونه": 2688,
    "▁سار": 2689,
    "▁آر": 2690,
    "▁85": 2691,
    "▁مدد": 2692,
    "▁نرسید": 2693,
    "▁36": 2694,
    "▁افتخار": 2695,
    "▁56": 2696,
    "▁علمی": 2697,
    "▁عربی": 2698,
    "▁جشنواره": 2699,
    "▁دستمزد": 2700,
    "▁سواحل": 2701,
    "▁مسجدالاقصی": 2702,
    "▁کاندیداتوری": 2703,
    "▁لهستان": 2704,
    "▁جنوا": 2705,
    "▁افزود": 2706,
    "▁مشابه": 2707,
    "▁منبع": 2708,
    "▁شوید": 2709,
    "▁شعب": 2710,
    "▁آگوئرو": 2711,
    "▁آوریل": 2712,
    "▁حدادی": 2713,
    "▁جایزه": 2714,
    "▁تند": 2715,
    "▁تورینو": 2716,
    "▁اوج": 2717,
    "▁تبلیغات": 2718,
    "▁72": 2719,
    "▁2019": 2720,
    "▁صلاح": 2721,
    "▁600": 2722,
    "▁ماموران": 2723,
    "▁سنت": 2724,
    "▁هموار": 2725,
    "▁الهی": 2726,
    "▁نبوده": 2727,
    "▁صف": 2728,
    "▁گفتم": 2729,
    "▁شبهای": 2730,
    "▁دوستان": 2731,
    "▁الدین": 2732,
    "▁مترو": 2733,
    "فاصله": 2734,
    "▁ساخته": 2735,
    "▁تحصیلی": 2736,
    "▁دامنه": 2737,
    "▁ایرانیها": 2738,
    "انداز": 2739,
    "▁روس": 2740,
    "▁قراردادش": 2741,
    "▁صهیونیست": 2742,
    "▁برده": 2743,
    "▁113": 2744,
    "▁اهواز": 2745,
    "▁شیاطین": 2746,
    "▁فایزر": 2747,
    "▁فیلادلفیا": 2748,
    "▁مشکوک": 2749,
    "▁ممفیس": 2750,
    "▁چمپیونشیپ": 2751,
    "▁دالاس": 2752,
    "▁پالایش": 2753,
    "▁نخواهند": 2754,
    "▁برکنار": 2755,
    "▁پوچتینو": 2756,
    "▁تکلیف": 2757,
    "▁آندره": 2758,
    "▁داستان": 2759,
    "▁محقق": 2760,
    "▁یابد": 2761,
    "▁پرگل": 2762,
    "▁منصور": 2763,
    "زو": 2764,
    "فروش": 2765,
    "حص": 2766,
    "▁105": 2767,
    "▁میوه": 2768,
    "حسین": 2769,
    "▁تلف": 2770,
    "▁زیبای": 2771,
    "این": 2772,
    "▁جایی": 2773,
    "▁57": 2774,
    "عنوان": 2775,
    "▁فل": 2776,
    "in": 2777,
    "▁مالکی": 2778,
    "▁نیک": 2779,
    "▁رسانده": 2780,
    "▁اطلاعیه": 2781,
    "▁نهاد": 2782,
    "▁اسپور": 2783,
    "▁58": 2784,
    "نشین": 2785,
    "میرحسین": 2786,
    "▁ایال": 2787,
    "▁تضمین": 2788,
    "▁جایگزین": 2789,
    "▁خطرناک": 2790,
    "▁جبهه": 2791,
    "▁میانگین": 2792,
    "▁لسترسیتی": 2793,
    "▁عقب": 2794,
    "▁احمدینژاد": 2795,
    "▁افتتاح": 2796,
    "▁درخشان": 2797,
    "▁کاو": 2798,
    "▁آرمان": 2799,
    "▁بنیاد": 2800,
    "▁مدارس": 2801,
    "پرس": 2802,
    "▁هرگونه": 2803,
    "▁مربیان": 2804,
    "▁گیرد": 2805,
    "▁مرور": 2806,
    "▁فرزندان": 2807,
    "▁انصاریان": 2808,
    "▁مه": 2809,
    "▁دوستانه": 2810,
    "بد": 2811,
    "H": 2812,
    "زده": 2813,
    "▁اتفاقی": 2814,
    "جل": 2815,
    "▁آمریکاییها": 2816,
    "▁نگه": 2817,
    "▁بگ": 2818,
    "▁گفتند": 2819,
    "▁قدیمی": 2820,
    "▁آم": 2821,
    "▁جراحی": 2822,
    "▁فرهنگی": 2823,
    "▁خودشون": 2824,
    "ریق": 2825,
    "▁سینما": 2826,
    "▁میز": 2827,
    "▁آلکثیر": 2828,
    "▁اشتوتگارت": 2829,
    "▁بیرانوند": 2830,
    "▁لایپزیش": 2831,
    "▁لیسبون": 2832,
    "▁استرالیا": 2833,
    "▁ثابت": 2834,
    "▁رختکن": 2835,
    "▁تبادل": 2836,
    "▁جلسات": 2837,
    "▁نوزدهم": 2838,
    "▁ژوزه": 2839,
    "▁کروتونه": 2840,
    "▁رومانو": 2841,
    "▁منزل": 2842,
    "▁شنیده": 2843,
    "▁گلمحمدی": 2844,
    "▁کرمانشاه": 2845,
    "▁چطور": 2846,
    "▁دوربین": 2847,
    "▁نوجوانان": 2848,
    "ندگان": 2849,
    "گه": 2850,
    "▁اصلاح": 2851,
    "▁48": 2852,
    "▁بدترین": 2853,
    "▁روزها": 2854,
    "▁صادرات": 2855,
    "▁واقعی": 2856,
    "▁بیگ": 2857,
    "▁منطق": 2858,
    "▁وعده": 2859,
    "▁برداشته": 2860,
    "▁استیت": 2861,
    "ro": 2862,
    "ائو": 2863,
    "مهدی": 2864,
    "▁برزیلی": 2865,
    "▁هل": 2866,
    "▁کشید": 2867,
    "▁ایمنی": 2868,
    "▁T": 2869,
    "▁گم": 2870,
    "▁دیپلمات": 2871,
    "▁مجبور": 2872,
    "▁وحدت": 2873,
    "▁العربی": 2874,
    "▁اکانت": 2875,
    "▁فرناند": 2876,
    "▁کالیاری": 2877,
    "▁رویترز": 2878,
    "▁تایلند": 2879,
    "▁حاکی": 2880,
    "▁کونته": 2881,
    "▁بازرسی": 2882,
    "▁تونل": 2883,
    "▁آرتتا": 2884,
    "▁برلین": 2885,
    "at": 2886,
    "▁داغ": 2887,
    "▁مدارک": 2888,
    "▁نتوانست": 2889,
    "▁درحالی": 2890,
    "▁هلال": 2891,
    "▁فرمت": 2892,
    "▁آنجا": 2893,
    "▁همون": 2894,
    "▁میکردند": 2895,
    "▁نوار": 2896,
    "▁محله": 2897,
    "▁خودشان": 2898,
    "▁یارانه": 2899,
    "▁کشیده": 2900,
    "▁b": 2901,
    "تان": 2902,
    "▁مست": 2903,
    "▁زیبا": 2904,
    "▁قطری": 2905,
    "▁نزد": 2906,
    "▁خب": 2907,
    "▁سالها": 2908,
    "▁ختافه": 2909,
    "▁صیادمنش": 2910,
    "▁نیوکاسل": 2911,
    "▁پیاسجی": 2912,
    "▁کثیر": 2913,
    "▁گلادباخ": 2914,
    "▁معمول": 2915,
    "▁وظیفه": 2916,
    "▁احمر": 2917,
    "▁سنجش": 2918,
    "▁مهدوی": 2919,
    "▁خالد": 2920,
    "▁دنور": 2921,
    "▁عفونت": 2922,
    "▁دانست": 2923,
    "▁اهمیت": 2924,
    "▁46": 2925,
    "▁میامی": 2926,
    "▁رضاوند": 2927,
    "▁اتاق": 2928,
    "▁بمب": 2929,
    "▁آنیلی": 2930,
    "▁زوریا": 2931,
    "▁لذت": 2932,
    "▁ناگلزمن": 2933,
    "▁800": 2934,
    "▁نفس": 2935,
    "▁واکسنهای": 2936,
    "▁73": 2937,
    "▁بردن": 2938,
    "▁دادستان": 2939,
    "▁میداد": 2940,
    "▁دهیم": 2941,
    "▁نزولی": 2942,
    "▁نمکی": 2943,
    "▁گلستان": 2944,
    "▁علیزاده": 2945,
    "▁بازیای": 2946,
    "حال": 2947,
    "▁حمل": 2948,
    "جان": 2949,
    "▁استاندار": 2950,
    "▁پیر": 2951,
    "تئو": 2952,
    "▁کوه": 2953,
    "▁گونه": 2954,
    "▁بنا": 2955,
    "▁غلامی": 2956,
    "▁سالانه": 2957,
    "نیا": 2958,
    "▁نیستم": 2959,
    "▁آلمانی": 2960,
    "▁detail": 2961,
    "▁اتخاذ": 2962,
    "▁حکومت": 2963,
    "▁دیپلماسی": 2964,
    "▁شیکاگو": 2965,
    "▁محبوس": 2966,
    "▁میگفت": 2967,
    "▁دامغان": 2968,
    "▁فراموش": 2969,
    "▁فوتفانکست": 2970,
    "▁استخدام": 2971,
    "▁فسخ": 2972,
    "▁قاضی": 2973,
    "▁نخواهیم": 2974,
    "▁سیزدهم": 2975,
    "▁پریرا": 2976,
    "واشی": 2977,
    "▁برادر": 2978,
    "▁لطف": 2979,
    "▁سوارز": 2980,
    "▁زهرا": 2981,
    "▁یوتا": 2982,
    "▁آوار": 2983,
    "▁الع": 2984,
    "سیون": 2985,
    "▁تصمیمگیری": 2986,
    "احی": 2987,
    "▁برج": 2988,
    "▁106": 2989,
    "جام": 2990,
    "▁صورتی": 2991,
    "▁پوشش": 2992,
    "ئول": 2993,
    "▁راحتی": 2994,
    "▁بیت": 2995,
    "▁ملیپوش": 2996,
    "▁پایبند": 2997,
    "▁107": 2998,
    "2022": 2999,
    "▁پزشک": 3000,
    "▁ترم": 3001,
    "▁صفی": 3002,
    "▁تاریخی": 3003,
    "▁شهروند": 3004,
    "▁میاد": 3005,
    "پل": 3006,
    "▁سلام": 3007,
    "▁r": 3008,
    "▁بنفیکا": 3009,
    "▁ترخیص": 3010,
    "▁تیکدری": 3011,
    "▁غیرقانونی": 3012,
    "▁شارجه": 3013,
    "▁شگفت": 3014,
    "▁توقیف": 3015,
    "▁شایعه": 3016,
    "▁انداخت": 3017,
    "▁عبدی": 3018,
    "▁جشن": 3019,
    "▁سمپدوریا": 3020,
    "▁چپ": 3021,
    "▁تولد": 3022,
    "▁مهلت": 3023,
    "▁بابایی": 3024,
    "اید": 3025,
    "▁فراهم": 3026,
    "▁باشگاهها": 3027,
    "▁میبرد": 3028,
    "▁تب": 3029,
    "▁92": 3030,
    "▁سگ": 3031,
    "▁دیدنی": 3032,
    "▁ریخت": 3033,
    "▁نشین": 3034,
    "▁مندی": 3035,
    "کاری": 3036,
    "خانه": 3037,
    "سکو": 3038,
    "▁مق": 3039,
    "▁ماندن": 3040,
    "▁توان": 3041,
    "▁طرفدار": 3042,
    "▁پارک": 3043,
    "▁کاندیدا": 3044,
    "▁بگیره": 3045,
    "▁125": 3046,
    "▁قلی": 3047,
    "▁سلطان": 3048,
    "▁شان": 3049,
    "▁تخلف": 3050,
    "▁محرم": 3051,
    "▁ذوبآهن": 3052,
    "▁زلزله": 3053,
    "▁عصبانی": 3054,
    "▁هیوستون": 3055,
    "▁پیشکسوت": 3056,
    "▁گناوه": 3057,
    "▁اطراف": 3058,
    "▁تسنیم": 3059,
    "▁مملکت": 3060,
    "▁زاهدی": 3061,
    "▁آنالیز": 3062,
    "▁عادل": 3063,
    "▁حجازی": 3064,
    "▁هندبال": 3065,
    "▁الکساندر": 3066,
    "▁خیبر": 3067,
    "▁آزار": 3068,
    "▁تایمز": 3069,
    "▁سرمربیگری": 3070,
    "▁شکوری": 3071,
    "▁لستر": 3072,
    "▁700": 3073,
    "▁ماهه": 3074,
    "▁67": 3075,
    "▁مستند": 3076,
    "▁مقدار": 3077,
    "▁شرایطی": 3078,
    "▁تماشاگران": 3079,
    "▁جدال": 3080,
    "▁فرود": 3081,
    "انگ": 3082,
    "▁ایل": 3083,
    "خل": 3084,
    "▁دنیل": 3085,
    "▁قطعه": 3086,
    "▁اص": 3087,
    "▁فوتی": 3088,
    "▁وسط": 3089,
    "▁مال": 3090,
    "▁جلوی": 3091,
    "وند": 3092,
    "▁امداد": 3093,
    "▁شیری": 3094,
    "▁حر": 3095,
    "دید": 3096,
    "▁واگذاری": 3097,
    "جانی": 3098,
    "▁ابو": 3099,
    "▁تماشا": 3100,
    "▁سعی": 3101,
    "▁ادعا": 3102,
    "▁akhbar": 3103,
    "▁استراتژی": 3104,
    "▁دژاگه": 3105,
    "▁طبیعی": 3106,
    "▁قرقیزستان": 3107,
    "▁لوشامپیونه": 3108,
    "▁نفوذ": 3109,
    "▁کلیولند": 3110,
    "▁نباشد": 3111,
    "▁عاشق": 3112,
    "▁منافع": 3113,
    "▁ملوان": 3114,
    "▁جهاد": 3115,
    "▁روغن": 3116,
    "▁دارید": 3117,
    "▁میرسه": 3118,
    "▁کاوانی": 3119,
    "▁پاسداران": 3120,
    "▁جوجه": 3121,
    "▁پلاک": 3122,
    "▁قوا": 3123,
    "▁مراقبت": 3124,
    "▁برنتفورد": 3125,
    "▁116": 3126,
    "▁رضایت": 3127,
    "اتو": 3128,
    "▁112": 3129,
    "▁115": 3130,
    "▁آتی": 3131,
    "▁اصولگرا": 3132,
    "▁102": 3133,
    "▁124": 3134,
    "غم": 3135,
    "▁نزدیکی": 3136,
    "▁زیست": 3137,
    "▁دیدن": 3138,
    "▁سفرها": 3139,
    "▁تاج": 3140,
    "دهی": 3141,
    "▁شکسته": 3142,
    "خانی": 3143,
    "▁گفتن": 3144,
    "▁باور": 3145,
    "▁کنونی": 3146,
    "▁F": 3147,
    "طر": 3148,
    "▁103": 3149,
    "▁انسان": 3150,
    "▁دلاری": 3151,
    "چون": 3152,
    "▁رامین": 3153,
    "▁میره": 3154,
    "▁اردو": 3155,
    "▁اسلام": 3156,
    "▁قلب": 3157,
    "▁کاپ": 3158,
    "▁گذاشتن": 3159,
    "▁رها": 3160,
    "▁توی": 3161,
    "▁ظرف": 3162,
    "▁آکادمی": 3163,
    "▁بروکلین": 3164,
    "▁دیترویت": 3165,
    "▁سیمئونه": 3166,
    "▁فاجعه": 3167,
    "▁هجدهم": 3168,
    "▁تورنتو": 3169,
    "▁هجوم": 3170,
    "▁پورتلند": 3171,
    "▁تحول": 3172,
    "▁کربلا": 3173,
    "▁بتیس": 3174,
    "▁تخم": 3175,
    "▁اهل": 3176,
    "▁صح": 3177,
    "▁اجاره": 3178,
    "▁2018": 3179,
    "▁کتاب": 3180,
    "▁تجارت": 3181,
    "▁فوتبالیست": 3182,
    "▁ماست": 3183,
    "▁مخصوص": 3184,
    "راحل": 3185,
    "▁کناره": 3186,
    "▁بتون": 3187,
    "▁قله": 3188,
    "▁ساکن": 3189,
    "▁بدهید": 3190,
    "جانبه": 3191,
    "▁76": 3192,
    "نویس": 3193,
    "آباد": 3194,
    "▁حرم": 3195,
    "▁شهری": 3196,
    "▁سالم": 3197,
    "▁رسیدند": 3198,
    "نظر": 3199,
    "▁پن": 3200,
    "▁نشدن": 3201,
    "▁دسترسی": 3202,
    "فه": 3203,
    "▁تماشاگر": 3204,
    "▁یاران": 3205,
    "ولو": 3206,
    "▁آبیها": 3207,
    "▁امتحان": 3208,
    "زین": 3209,
    "▁86": 3210,
    "▁هوای": 3211,
    "▁عزت": 3212,
    "▁FootfunOnline": 3213,
    "▁الاقصی": 3214,
    "▁السیلیه": 3215,
    "▁اوکلاهما": 3216,
    "▁خلیجفارس": 3217,
    "▁لاپورتا": 3218,
    "▁مواضع": 3219,
    "▁نخستوزیر": 3220,
    "▁اسطوره": 3221,
    "▁فاتح": 3222,
    "▁شعار": 3223,
    "▁ناگهان": 3224,
    "▁برانکو": 3225,
    "▁کلیپرز": 3226,
    "▁مهیب": 3227,
    "▁رفتند": 3228,
    "▁بومی": 3229,
    "▁ساوتهمپتون": 3230,
    "▁لس": 3231,
    "▁فریب": 3232,
    "▁صنف": 3233,
    "▁غذایی": 3234,
    "▁کریس": 3235,
    "▁راست": 3236,
    "▁غنی": 3237,
    "▁مصا": 3238,
    "میادین": 3239,
    "▁قا": 3240,
    "▁سینا": 3241,
    "▁نیما": 3242,
    "▁خوشحال": 3243,
    "▁بارها": 3244,
    "داشت": 3245,
    "فرزاد": 3246,
    "▁رمز": 3247,
    "▁خودمون": 3248,
    "▁فرم": 3249,
    "▁شغلی": 3250,
    "پوش": 3251,
    "▁63": 3252,
    "خصوص": 3253,
    "ضرب": 3254,
    "▁نداده": 3255,
    "اقد": 3256,
    "▁هفتهای": 3257,
    "▁ملتها": 3258,
    "va": 3259,
    "▁بل": 3260,
    "▁قدمی": 3261,
    "▁نما": 3262,
    "▁تحقیق": 3263,
    "▁ارزی": 3264,
    "▁امری": 3265,
    "▁تکواندو": 3266,
    "▁مجروح": 3267,
    "▁موضع": 3268,
    "▁میلواکی": 3269,
    "▁نسخه": 3270,
    "▁بخیر": 3271,
    "▁گیتس": 3272,
    "▁برعهده": 3273,
    "▁حقیقی": 3274,
    "▁سالمندان": 3275,
    "▁یونان": 3276,
    "▁بوستون": 3277,
    "▁ژاوی": 3278,
    "▁میروند": 3279,
    "منستان": 3280,
    "▁عج": 3281,
    "▁سبک": 3282,
    "▁قوت": 3283,
    "▁دلایل": 3284,
    "▁تفاوت": 3285,
    "▁محکومیت": 3286,
    "▁آورده": 3287,
    "▁ریگی": 3288,
    "▁اصلاحات": 3289,
    "▁114": 3290,
    "چین": 3291,
    "90": 3292,
    "فنی": 3293,
    "▁101": 3294,
    "▁حاجی": 3295,
    "▁51": 3296,
    "▁مذاکرهکنند": 3297,
    "▁93": 3298,
    "یراد": 3299,
    "▁دز": 3300,
    "▁پرتغالی": 3301,
    "▁کالاهای": 3302,
    "▁بهشت": 3303,
    "▁دانشگاهها": 3304,
    "▁ماهواره": 3305,
    "▁سیب": 3306,
    "▁روسی": 3307,
    "ارسل": 3308,
    "توجه": 3309,
    "▁جهانگیری": 3310,
    "sh": 3311,
    "▁مطالب": 3312,
    "باش": 3313,
    "▁مراجع": 3314,
    "▁سنی": 3315,
    "اشی": 3316,
    "▁R": 3317,
    "▁مصر": 3318,
    "▁اتحاد": 3319,
    "▁ریو": 3320,
    "▁هنر": 3321,
    "▁VAR": 3322,
    "▁اسپوتنیک": 3323,
    "▁الکترونیک": 3324,
    "▁رییسجمهور": 3325,
    "▁ساکرامنتو": 3326,
    "▁سفارش": 3327,
    "▁صربستان": 3328,
    "▁محسوب": 3329,
    "▁املاک": 3330,
    "▁شوخی": 3331,
    "▁طاهر": 3332,
    "▁موبایل": 3333,
    "▁محرز": 3334,
    "▁تمایل": 3335,
    "▁سفیر": 3336,
    "▁عوض": 3337,
    "▁اخطار": 3338,
    "▁لوازم": 3339,
    "▁عملی": 3340,
    "▁معیشت": 3341,
    "▁فتح": 3342,
    "▁برنلی": 3343,
    "▁روبرو": 3344,
    "▁قدرتمند": 3345,
    "▁نمیخوا": 3346,
    "▁خشک": 3347,
    "▁تبع": 3348,
    "▁فطریه": 3349,
    "▁لاری": 3350,
    "▁برقرار": 3351,
    "▁کاش": 3352,
    "▁طالبان": 3353,
    "نشدهو": 3354,
    "▁89": 3355,
    "▁خلاف": 3356,
    "▁نگهدار": 3357,
    "بالغ": 3358,
    "▁وزنهبرداری": 3359,
    "کام": 3360,
    "▁94": 3361,
    "70": 3362,
    "▁کرو": 3363,
    "▁اعلامشده": 3364,
    "▁میخواست": 3365,
    "▁مغز": 3366,
    "تومان": 3367,
    "▁بروم": 3368,
    "▁آرای": 3369,
    "▁تخت": 3370,
    "▁آمدن": 3371,
    "▁دارایی": 3372,
    "▁گور": 3373,
    "▁بهبود": 3374,
    "لیک": 3375,
    "▁صنعتی": 3376,
    "▁شادی": 3377,
    "▁گزارشهای": 3378,
    "▁خوشه": 3379,
    "▁ترس": 3380,
    "▁کان": 3381,
    "▁کیت": 3382,
    "▁آنان": 3383,
    "▁قائم": 3384,
    "▁آتلانتا": 3385,
    "▁اخلاق": 3386,
    "▁انتقام": 3387,
    "▁شهباززاده": 3388,
    "▁اوضاع": 3389,
    "▁بشنوید": 3390,
    "▁کادیز": 3391,
    "▁افطار": 3392,
    "▁اسبق": 3393,
    "▁نمیدهد": 3394,
    "▁محبی": 3395,
    "▁سهراب": 3396,
    "▁سرانجام": 3397,
    "▁اطلاعرسانی": 3398,
    "▁برسیم": 3399,
    "▁فلاح": 3400,
    "▁فرمول": 3401,
    "▁آنفیلد": 3402,
    "▁متری": 3403,
    "▁فرانک": 3404,
    "▁اشغالگر": 3405,
    "▁مجازات": 3406,
    "▁مارکا": 3407,
    "▁121": 3408,
    "▁گردن": 3409,
    "▁میخ": 3410,
    "▁سخنان": 3411,
    "رون": 3412,
    "پن": 3413,
    "▁مسئولین": 3414,
    "▁جرم": 3415,
    "▁گردید": 3416,
    "▁دختران": 3417,
    "▁کلاب": 3418,
    "مومنی": 3419,
    "ئین": 3420,
    "▁بگیر": 3421,
    "▁اپ": 3422,
    "▁محدوده": 3423,
    "▁سور": 3424,
    "▁رضاییان": 3425,
    "▁84": 3426,
    "▁آرزوی": 3427,
    "▁نوری": 3428,
    "قصد": 3429,
    "▁دستورالعمل": 3430,
    "▁یکسال": 3431,
    "▁سوار": 3432,
    "▁عین": 3433,
    "▁برگ": 3434,
    "▁جر": 3435,
    "اله": 3436,
    "▁گستر": 3437,
    "▁mesteriptv": 3438,
    "▁آنتورپ": 3439,
    "▁ابوالفضل": 3440,
    "▁تثبیت": 3441,
    "▁رقبا": 3442,
    "▁شارلوت": 3443,
    "▁متخصص": 3444,
    "▁هماکنون": 3445,
    "▁والورده": 3446,
    "▁اشتراک": 3447,
    "▁تنظیم": 3448,
    "▁2017": 3449,
    "▁اقامت": 3450,
    "▁میباشد": 3451,
    "▁چفرین": 3452,
    "▁رایولا": 3453,
    "▁میگن": 3454,
    "▁غالب": 3455,
    "▁میماند": 3456,
    "▁ملل": 3457,
    "▁راننده": 3458,
    "▁سرخابی": 3459,
    "▁لوکاکو": 3460,
    "▁امریکا": 3461,
    "▁استفانو": 3462,
    "▁اهداف": 3463,
    "▁سیلاب": 3464,
    "▁2015": 3465,
    "▁ارزیابی": 3466,
    "▁میگه": 3467,
    "▁اسدی": 3468,
    "▁ندید": 3469,
    "▁هاوس": 3470,
    "▁کامنت": 3471,
    "▁پناه": 3472,
    "شویی": 3473,
    "▁هیچکس": 3474,
    "▁سهم": 3475,
    "▁آقایی": 3476,
    "▁واقعیت": 3477,
    "▁ویدیویی": 3478,
    "▁سلطانی": 3479,
    "▁وست": 3480,
    "▁مهرام": 3481,
    "▁رسوند": 3482,
    "▁اعلامشدهاست": 3483,
    "▁کاست": 3484,
    "وق": 3485,
    "▁آدر": 3486,
    "▁کال": 3487,
    "▁تع": 3488,
    "رج": 3489,
    "▁کارهای": 3490,
    "▁انگیزه": 3491,
    "رنج": 3492,
    "▁43": 3493,
    "▁تل": 3494,
    "صب": 3495,
    "قابل": 3496,
    "▁اقدامی": 3497,
    "▁آی": 3498,
    "شدن": 3499,
    "بول": 3500,
    "▁آموزشی": 3501,
    "▁تنش": 3502,
    "▁حریفان": 3503,
    "▁افتاده": 3504,
    "▁پذیرش": 3505,
    "▁باورنکردنی": 3506,
    "▁ترجیح": 3507,
    "▁تفاضل": 3508,
    "▁جستجو": 3509,
    "▁فابری": 3510,
    "▁محترم": 3511,
    "▁مودریچ": 3512,
    "▁ویزاردز": 3513,
    "▁کنداکتور": 3514,
    "▁ایندیانا": 3515,
    "▁فرستاد": 3516,
    "▁روبیکا": 3517,
    "▁میخواهم": 3518,
    "▁سرویس": 3519,
    "▁مولر": 3520,
    "▁ساوه": 3521,
    "▁مذهب": 3522,
    "▁پاکستان": 3523,
    "▁صمت": 3524,
    "▁تصادف": 3525,
    "▁شدیم": 3526,
    "▁جنجال": 3527,
    "▁گشت": 3528,
    "▁ماجرا": 3529,
    "▁بگیریم": 3530,
    "▁آسان": 3531,
    "▁شوک": 3532,
    "▁کانو": 3533,
    "▁سالن": 3534,
    "اکس": 3535,
    "▁بگیرند": 3536,
    "▁شهرسازی": 3537,
    "▁وجه": 3538,
    "▁سوت": 3539,
    "▁108": 3540,
    "ایران": 3541,
    "▁مهمان": 3542,
    "کاس": 3543,
    "▁اب": 3544,
    "99": 3545,
    "▁شن": 3546,
    "▁فو": 3547,
    "▁بدین": 3548,
    "▁شهرها": 3549,
    "اما": 3550,
    "▁ادار": 3551,
    "▁جیم": 3552,
    "آف": 3553,
    "▁فروشگاه": 3554,
    "▁52": 3555,
    "▁82": 3556,
    "▁معلم": 3557,
    "ارم": 3558,
    "▁هواپیمایی": 3559,
    "▁نگرفته": 3560,
    "▁54": 3561,
    "▁اتری": 3562,
    "▁رونالد": 3563,
    "▁مارک": 3564,
    "نیوز": 3565,
    "▁اختلال": 3566,
    "▁اطمینان": 3567,
    "▁فیورنتینا": 3568,
    "▁نتانیاهو": 3569,
    "▁صفحات": 3570,
    "▁مونشن": 3571,
    "▁یکچهارم": 3572,
    "▁سیتیزنها": 3573,
    "▁سبب": 3574,
    "▁شرح": 3575,
    "▁بسیج": 3576,
    "▁گیاه": 3577,
    "▁کابینه": 3578,
    "▁ببره": 3579,
    "▁نمیشه": 3580,
    "▁حیات": 3581,
    "▁خسته": 3582,
    "▁زارع": 3583,
    "وح": 3584,
    "▁صبر": 3585,
    "▁رنک": 3586,
    "▁گوشی": 3587,
    "▁آرژانتین": 3588,
    "▁نبرد": 3589,
    "▁خطیب": 3590,
    "▁عرب": 3591,
    "▁فرماندار": 3592,
    "▁117": 3593,
    "▁خیال": 3594,
    "▁شیوه": 3595,
    "▁پیج": 3596,
    "▁کلیپ": 3597,
    "▁61": 3598,
    "▁53": 3599,
    "یژن": 3600,
    "▁گذر": 3601,
    "▁مطالبه": 3602,
    "▁کف": 3603,
    "▁دستیاران": 3604,
    "▁راهور": 3605,
    "▁کریست": 3606,
    "▁موقتی": 3607,
    "▁کای": 3608,
    "▁پیرا": 3609,
    "▁بروز": 3610,
    "▁عربستانی": 3611,
    "باع": 3612,
    "▁درگیریها": 3613,
    "▁ایو": 3614,
    "▁غل": 3615,
    "▁خاطره": 3616,
    "▁کالای": 3617,
    "فان": 3618,
    "▁امت": 3619,
    "▁شورا": 3620,
    "15": 3621,
    "▁محبوب": 3622,
    "▁اپلیکیشن": 3623,
    "▁بازنشستگان": 3624,
    "▁صفادشت": 3625,
    "آزمایی": 3626,
    "▁نمیکنیم": 3627,
    "▁شناور": 3628,
    "▁دقت": 3629,
    "▁رشته": 3630,
    "▁هتتریک": 3631,
    "▁مهندس": 3632,
    "▁داعش": 3633,
    "▁احترام": 3634,
    "▁بقایای": 3635,
    "▁تخفیف": 3636,
    "▁خانوار": 3637,
    "▁یوسف": 3638,
    "▁بازماند": 3639,
    "▁p": 3640,
    "▁فنیکس": 3641,
    "▁بگیرید": 3642,
    "▁جده": 3643,
    "کنو": 3644,
    "▁زوج": 3645,
    "▁بزند": 3646,
    "▁سوییس": 3647,
    "تک": 3648,
    "▁هواپیما": 3649,
    "▁قدم": 3650,
    "▁جادهای": 3651,
    "▁آث": 3652,
    "▁47": 3653,
    "▁تماشای": 3654,
    "سترز": 3655,
    "▁88": 3656,
    "200": 3657,
    "▁44": 3658,
    "75": 3659,
    "ویچ": 3660,
    "▁ورودی": 3661,
    "▁خطای": 3662,
    "ish": 3663,
    "▁کلاهبرداری": 3664,
    "▁نفرات": 3665,
    "96": 3666,
    "▁خوشحالی": 3667,
    "▁شهدای": 3668,
    "95": 3669,
    "ائی": 3670,
    "▁آرامش": 3671,
    "▁بنابر": 3672,
    "▁نسب": 3673,
    "▁62": 3674,
    "▁معترض": 3675,
    "▁مسلم": 3676,
    "▁خریداری": 3677,
    "▁کات": 3678,
    "▁تماشایی": 3679,
    "▁افشا": 3680,
    "▁FootFunvideo": 3681,
    "▁تخریب": 3682,
    "▁ضعف": 3683,
    "▁عوارض": 3684,
    "▁مطالعات": 3685,
    "▁مطلع": 3686,
    "▁نویدکیا": 3687,
    "▁مارتینز": 3688,
    "▁رفیع": 3689,
    "▁قارچ": 3690,
    "▁ناظر": 3691,
    "▁میکنید": 3692,
    "▁ورنر": 3693,
    "▁ذکر": 3694,
    "▁تموم": 3695,
    "▁جناح": 3696,
    "▁درویشی": 3697,
    "▁دهقان": 3698,
    "▁حوال": 3699,
    "▁کنایه": 3700,
    "▁معادن": 3701,
    "▁جنب": 3702,
    "▁مرزبان": 3703,
    "▁رادیو": 3704,
    "▁قادر": 3705,
    "▁نیستیم": 3706,
    "▁ماموریت": 3707,
    "▁سلمان": 3708,
    "▁زنجیرهای": 3709,
    "▁مونده": 3710,
    "▁وابست": 3711,
    "▁شخص": 3712,
    "▁نیکس": 3713,
    "▁نگرفت": 3714,
    "▁پوند": 3715,
    "رتی": 3716,
    "▁تابست": 3717,
    "▁بنز": 3718,
    "▁گفتوگوی": 3719,
    "▁رایزنی": 3720,
    "▁کشاورزی": 3721,
    "▁رحمت": 3722,
    "ژو": 3723,
    "امبر": 3724,
    "▁شدهبودند": 3725,
    "▁گزارشگر": 3726,
    "▁شبی": 3727,
    "▁دین": 3728,
    "سته": 3729,
    "▁کلیدی": 3730,
    "▁مارکو": 3731,
    "▁119": 3732,
    "▁درمانی": 3733,
    "▁زدند": 3734,
    "طلب": 3735,
    "▁واران": 3736,
    "▁جراح": 3737,
    "▁سون": 3738,
    "جواد": 3739,
    "▁بازیکنانم": 3740,
    "▁استرس": 3741,
    "▁خن": 3742,
    "▁گفتوگوهای": 3743,
    "▁درون": 3744,
    "▁رود": 3745,
    "▁64": 3746,
    "قدر": 3747,
    "▁نکن": 3748,
    "▁منصو": 3749,
    "▁حدی": 3750,
    "فرد": 3751,
    "نتس": 3752,
    "▁گفتهبود": 3753,
    "فهد": 3754,
    "▁تعقیب": 3755,
    "▁زنبورها": 3756,
    "▁فرانکفورت": 3757,
    "▁پارالمپیک": 3758,
    "▁فناوری": 3759,
    "▁هوشمند": 3760,
    "▁رحیم": 3761,
    "▁تجهیزات": 3762,
    "▁معنای": 3763,
    "▁کنگره": 3764,
    "▁مرتبط": 3765,
    "▁پاتوسی": 3766,
    "▁عیار": 3767,
    "▁akhbare": 3768,
    "▁وزرا": 3769,
    "▁سقف": 3770,
    "ذر": 3771,
    "▁هواپیمای": 3772,
    "▁بزنیم": 3773,
    "▁ترابزون": 3774,
    "▁اداری": 3775,
    "▁بزرگسال": 3776,
    "▁پروین": 3777,
    "▁مراد": 3778,
    "▁افکار": 3779,
    "▁امضای": 3780,
    "▁شوم": 3781,
    "ستری": 3782,
    "▁غلام": 3783,
    "▁اینترنت": 3784,
    "لوف": 3785,
    "▁فرمان": 3786,
    "▁قال": 3787,
    "▁77": 3788,
    "900": 3789,
    "زیست": 3790,
    "▁پیکه": 3791,
    "▁گزارشها": 3792,
    "▁نشانی": 3793,
    "▁روستایی": 3794,
    "▁بردار": 3795,
    "▁انسانی": 3796,
    "▁تاکتیکی": 3797,
    "▁حیدری": 3798,
    "پاشی": 3799,
    "▁ستارههای": 3800,
    "هنگ": 3801,
    "▁فلسطینیان": 3802,
    "▁نهادها": 3803,
    "▁خودم": 3804,
    "▁ارزهای": 3805,
    "زیو": 3806,
    "▁زر": 3807,
    "▁کت": 3808,
    "▁ابتدایی": 3809,
    "▁آبان": 3810,
    "W": 3811,
    "▁بنده": 3812,
    "▁ریز": 3813,
    "▁آرام": 3814,
    "امت": 3815,
    "غول": 3816,
    "▁دمای": 3817,
    "لمس": 3818,
    "60": 3819,
    "▁ارلینگ": 3820,
    "▁تقدیر": 3821,
    "▁حفاظت": 3822,
    "▁دانلود": 3823,
    "▁محتوای": 3824,
    "▁محوطه": 3825,
    "▁السلام": 3826,
    "▁شاکری": 3827,
    "▁دعوا": 3828,
    "▁خشونت": 3829,
    "▁قلعه": 3830,
    "▁جزییات": 3831,
    "▁نجف": 3832,
    "▁پوتین": 3833,
    "▁تشکر": 3834,
    "▁صلح": 3835,
    "▁صحیح": 3836,
    "▁ثروتمند": 3837,
    "▁معنوی": 3838,
    "▁بعید": 3839,
    "▁الزام": 3840,
    "▁شویم": 3841,
    "▁برونو": 3842,
    "▁فروخته": 3843,
    "▁اسامی": 3844,
    "▁ریسک": 3845,
    "▁لوئی": 3846,
    "▁دفع": 3847,
    "▁منصوریان": 3848,
    "▁کارگروه": 3849,
    "▁لب": 3850,
    "▁میخوان": 3851,
    "▁تسلیت": 3852,
    "تپه": 3853,
    "▁دانشآموزان": 3854,
    "▁کارمندان": 3855,
    "▁اسرائیلی": 3856,
    "TV": 3857,
    "▁مخاطبان": 3858,
    "▁احت": 3859,
    "▁اینستاگرامی": 3860,
    "خته": 3861,
    "▁ضربات": 3862,
    "▁استاندارد": 3863,
    "▁صالح": 3864,
    "▁قدیم": 3865,
    "گویی": 3866,
    "▁مسیح": 3867,
    "▁استارت": 3868,
    "▁نشینی": 3869,
    "▁یورویی": 3870,
    "▁تروریست": 3871,
    "داع": 3872,
    "▁ایده": 3873,
    "20": 3874,
    "▁بیاد": 3875,
    "▁بهروز": 3876,
    "ناد": 3877,
    "▁گزینههای": 3878,
    "▁81": 3879,
    "▁ساس": 3880,
    "قات": 3881,
    "▁همتی": 3882,
    "1400": 3883,
    "▁دادهبود": 3884,
    "▁صالحی": 3885,
    "رازی": 3886,
    "▁تبریزی": 3887,
    "▁پله": 3888,
    "نندگان": 3889,
    "▁نقشه": 3890,
    "▁نمود": 3891,
    "▁k": 3892,
    "▁جدیت": 3893,
    "ghe": 3894,
    "▁Tajikistan": 3895,
    "▁Varz": 3896,
    "▁اضطرار": 3897,
    "▁اودینزه": 3898,
    "▁اورلاندو": 3899,
    "▁دخالت": 3900,
    "▁طبیعت": 3901,
    "▁فوقالعاده": 3902,
    "▁فونسکا": 3903,
    "▁نورافکن": 3904,
    "▁ولورهمپتون": 3905,
    "▁آنجلس": 3906,
    "▁اصرار": 3907,
    "▁ربط": 3908,
    "▁حماس": 3909,
    "▁2023": 3910,
    "▁مشتری": 3911,
    "▁شفیلد": 3912,
    "▁آرمین": 3913,
    "▁تصور": 3914,
    "▁چرخ": 3915,
    "▁آندری": 3916,
    "▁زانو": 3917,
    "▁طوری": 3918,
    "▁نکنند": 3919,
    "▁اریک": 3920,
    "▁یافتن": 3921,
    "▁قابلیت": 3922,
    "▁140": 3923,
    "▁نماد": 3924,
    "▁تاثیرگذار": 3925,
    "▁قلبی": 3926,
    "لف": 3927,
    "▁اختلافات": 3928,
    "▁نوید": 3929,
    "▁ارتباطات": 3930,
    "▁شاد": 3931,
    "دهنده": 3932,
    "▁کاشت": 3933,
    "▁هنگ": 3934,
    "▁کردهبودند": 3935,
    "پوریا": 3936,
    "▁مینو": 3937,
    "▁زو": 3938,
    "▁شخصیت": 3939,
    "nt": 3940,
    "ra": 3941,
    "انیال": 3942,
    "ساب": 3943,
    "نکو": 3944,
    "▁جل": 3945,
    "شار": 3946,
    "وحش": 3947,
    "▁c": 3948,
    "▁واکسنها": 3949,
    "ناس": 3950,
    "▁فور": 3951,
    "▁کاندیداهای": 3952,
    "▁آرژانتینی": 3953,
    "▁موز": 3954,
    "هایشان": 3955,
    "▁شفاف": 3956,
    "▁ارزشمند": 3957,
    "▁اولونگا": 3958,
    "▁تقاضا": 3959,
    "▁تکنولوژی": 3960,
    "▁دانمارک": 3961,
    "▁اصغر": 3962,
    "▁اصناف": 3963,
    "▁سایبری": 3964,
    "▁بریتانیا": 3965,
    "▁معلول": 3966,
    "▁معلوم": 3967,
    "▁خیانت": 3968,
    "▁موانع": 3969,
    "▁عشق": 3970,
    "▁کانادا": 3971,
    "▁بماند": 3972,
    "▁نکات": 3973,
    "▁عزتالله": 3974,
    "▁گلوله": 3975,
    "▁آلودگی": 3976,
    "▁بارشها": 3977,
    "▁فراوان": 3978,
    "▁اصولگرایان": 3979,
    "▁کدوم": 3980,
    "▁تختی": 3981,
    "▁خشم": 3982,
    "▁توئیتر": 3983,
    "▁جانسون": 3984,
    "▁سکوت": 3985,
    "▁نمیتون": 3986,
    "▁یکدیگر": 3987,
    "▁پاتو": 3988,
    "65": 3989,
    "▁نداشتیم": 3990,
    "▁مرزی": 3991,
    "▁عمان": 3992,
    "▁سیر": 3993,
    "▁فقره": 3994,
    "ربع": 3995,
    "▁ببرن": 3996,
    "▁104": 3997,
    "ووا": 3998,
    "▁ادین": 3999,
    "▁ذی": 4000,
    "▁همسرش": 4001,
    "▁بهتری": 4002,
    "on": 4003,
    "▁بیلد": 4004,
    "94": 4005,
    "▁روستای": 4006,
    "▁ra": 4007,
    "▁ویدئوی": 4008,
    "▁غول": 4009,
    "▁130": 4010,
    "▁پیشرو": 4011,
    "▁سکو": 4012,
    "▁میدانند": 4013,
    "صاب": 4014,
    "ریز": 4015,
    "▁ربیعی": 4016,
    "▁سرزمین": 4017,
    "▁شبیه": 4018,
    "▁هال": 4019,
    "▁شل": 4020,
    "▁u": 4021,
    "▁ظاهر": 4022,
    "▁خودروساز": 4023,
    "▁کاظمی": 4024,
    "▁مومن": 4025,
    "▁سرباز": 4026,
    "گردان": 4027,
    "تیم": 4028,
    "ویروس": 4029,
    "▁انگیز": 4030,
    "▁پک": 4031,
    "▁خریدار": 4032,
    "▁تنگ": 4033,
    "▁95": 4034,
    "▁اینترنتی": 4035,
    "رگن": 4036,
    "▁شهرستانهای": 4037,
    "▁بلغارستان": 4038,
    "▁تعریف": 4039,
    "▁گتوزو": 4040,
    "▁نطنز": 4041,
    "▁حقیقت": 4042,
    "▁پورقاز": 4043,
    "▁طوفان": 4044,
    "▁قدوس": 4045,
    "▁مسوول": 4046,
    "▁سحر": 4047,
    "▁لایحه": 4048,
    "▁مقصر": 4049,
    "▁پراگ": 4050,
    "▁سراغ": 4051,
    "▁بخواهد": 4052,
    "▁پیولی": 4053,
    "▁ولادی": 4054,
    "▁تنفس": 4055,
    "▁ورزشکار": 4056,
    "▁وکیل": 4057,
    "▁فینالیست": 4058,
    "▁دیپلماتیک": 4059,
    "▁داود": 4060,
    "▁ماینر": 4061,
    "صادف": 4062,
    "▁کورس": 4063,
    "▁کسر": 4064,
    "▁خلیلزاده": 4065,
    "▁ناجا": 4066,
    "▁ایبار": 4067,
    "▁کنسولگری": 4068,
    "▁بنظر": 4069,
    "▁خبرهای": 4070,
    "▁موشکهای": 4071,
    "▁کردهایم": 4072,
    "ضار": 4073,
    "▁علا": 4074,
    "دکست": 4075,
    "▁قیمتهای": 4076,
    "▁ناپذیر": 4077,
    "▁طلاق": 4078,
    "▁کارلو": 4079,
    "▁خوشحالم": 4080,
    "ساله": 4081,
    "▁برکت": 4082,
    "▁49": 4083,
    "▁منشا": 4084,
    "▁135": 4085,
    "▁ساک": 4086,
    "▁راستی": 4087,
    "▁راضی": 4088,
    "عهد": 4089,
    "▁79": 4090,
    "▁سهیل": 4091,
    "▁بخوا": 4092,
    "▁سیو": 4093,
    "غلب": 4094,
    "ریک": 4095,
    "▁کمر": 4096,
    "▁بزن": 4097,
    "▁نامزدها": 4098,
    "▁بنی": 4099,
    "▁جعل": 4100,
    "▁ساختار": 4101,
    "یافت": 4102,
    "سپری": 4103,
    "ابت": 4104,
    "▁ناکامی": 4105,
    "گرایی": 4106,
    "▁کپ": 4107,
    "▁بچهها": 4108,
    "جاز": 4109,
    "▁اصلاحطلب": 4110,
    "▁دانشجوی": 4111,
    "▁بانکهای": 4112,
    "▁موافق": 4113,
    "الت": 4114,
    "▁تروریس": 4115,
    "▁کنی": 4116,
    "▁اهدا": 4117,
    "▁mowla": 4118,
    "▁اعتراف": 4119,
    "▁بنونتو": 4120,
    "▁تشویق": 4121,
    "▁تجدید": 4122,
    "▁مییابد": 4123,
    "▁بیطرف": 4124,
    "▁مستقر": 4125,
    "▁شناسنامه": 4126,
    "▁مخدر": 4127,
    "▁مقدس": 4128,
    "▁خلق": 4129,
    "▁فروزان": 4130,
    "▁کلانتر": 4131,
    "▁تفسیر": 4132,
    "▁حاتم": 4133,
    "▁ورونا": 4134,
    "▁فروشندگان": 4135,
    "▁لوله": 4136,
    "▁ارزشمندترین": 4137,
    "▁المیادین": 4138,
    "▁حیوانات": 4139,
    "▁عباسزاده": 4140,
    "زنین": 4141,
    "▁چراغ": 4142,
    "▁قلم": 4143,
    "▁تلفات": 4144,
    "▁مساله": 4145,
    "▁باهم": 4146,
    "▁کفش": 4147,
    "▁118": 4148,
    "▁پرده": 4149,
    "وئل": 4150,
    "▁طبقه": 4151,
    "▁داشتهاند": 4152,
    "فاد": 4153,
    "▁آرائ": 4154,
    "▁59": 4155,
    "▁فال": 4156,
    "▁حسابهای": 4157,
    "25": 4158,
    "▁سوئد": 4159,
    "▁بازرگانی": 4160,
    "▁مالکان": 4161,
    "▁میدهم": 4162,
    "▁حج": 4163,
    "▁میتوانست": 4164,
    "▁رن": 4165,
    "▁41": 4166,
    "▁مینه": 4167,
    "▁آور": 4168,
    "▁ایرانیان": 4169,
    "▁رمزارزها": 4170,
    "▁نیو": 4171,
    "▁یار": 4172,
    "th": 4173,
    "قرار": 4174,
    "▁122": 4175,
    "خلاف": 4176,
    "▁سخن": 4177,
    "▁طالب": 4178,
    "▁گرفتار": 4179,
    "▁داشتم": 4180,
    "▁توئیت": 4181,
    "▁تقدیم": 4182,
    "▁زغال": 4183,
    "▁شانزدهم": 4184,
    "▁لیدزیونایتد": 4185,
    "▁مطبوعات": 4186,
    "▁ملحق": 4187,
    "▁میناوند": 4188,
    "▁کالیفرنیا": 4189,
    "▁کامرانیه": 4190,
    "▁اکسیژن": 4191,
    "▁اعدام": 4192,
    "▁اجباری": 4193,
    "▁موکول": 4194,
    "▁میافتد": 4195,
    "▁میبرند": 4196,
    "▁تدارکاتی": 4197,
    "▁معجزه": 4198,
    "▁جنین": 4199,
    "▁بمونه": 4200,
    "▁مربیگری": 4201,
    "▁همکاران": 4202,
    "▁وصول": 4203,
    "▁هتریک": 4204,
    "▁خاموش": 4205,
    "▁باشن": 4206,
    "▁لیون": 4207,
    "▁زاگر": 4208,
    "▁حسام": 4209,
    "▁کورت": 4210,
    "▁بانوی": 4211,
    "▁آلود": 4212,
    "▁جنایت": 4213,
    "▁ببین": 4214,
    "▁شم": 4215,
    "خار": 4216,
    "▁قضائیه": 4217,
    "▁آنتن": 4218,
    "▁مونته": 4219,
    "▁خام": 4220,
    "▁الچه": 4221,
    "▁سوتا": 4222,
    "▁پیچیده": 4223,
    "▁180": 4224,
    "خوانی": 4225,
    "▁گردد": 4226,
    "اچ": 4227,
    "نمایی": 4228,
    "▁نابود": 4229,
    "91": 4230,
    "▁جنسی": 4231,
    "▁دسترس": 4232,
    "▁ایمن": 4233,
    "زایی": 4234,
    "▁جلالی": 4235,
    "CR": 4236,
    "▁اج": 4237,
    "▁صرافی": 4238,
    "پوشان": 4239,
    "▁صرافیها": 4240,
    "▁آخوندی": 4241,
    "▁گار": 4242,
    "▁دنی": 4243,
    "▁69": 4244,
    "▁لوا": 4245,
    "▁مواجهه": 4246,
    "▁رکوردهای": 4247,
    "گذر": 4248,
    "▁اصول": 4249,
    "vi": 4250,
    "▁دیگران": 4251,
    "▁مراقب": 4252,
    "▁تبلیغ": 4253,
    "▁بدل": 4254,
    "▁تعهد": 4255,
    "▁اسپتزیا": 4256,
    "▁الجزیره": 4257,
    "▁الدترافورد": 4258,
    "▁تقویم": 4259,
    "▁زامهران": 4260,
    "▁فیزیکی": 4261,
    "▁قضیه": 4262,
    "▁لقب": 4263,
    "▁نصرالله": 4264,
    "▁پدافند": 4265,
    "▁دمبله": 4266,
    "▁قرضی": 4267,
    "▁مفقود": 4268,
    "▁میبینید": 4269,
    "▁شالکه": 4270,
    "▁شیمبا": 4271,
    "▁ذهن": 4272,
    "▁نمیدانم": 4273,
    "▁جاسوس": 4274,
    "▁پذیرفت": 4275,
    "▁نیواورلینز": 4276,
    "▁سناتور": 4277,
    "▁عقد": 4278,
    "▁مشهور": 4279,
    "▁بدانید": 4280,
    "▁گنج": 4281,
    "▁پژوهش": 4282,
    "▁ژوئن": 4283,
    "▁مقتدران": 4284,
    "شدهباشد": 4285,
    "▁موسیقی": 4286,
    "▁پاکدل": 4287,
    "▁بیسابقه": 4288,
    "▁کانته": 4289,
    "▁پاکبان": 4290,
    "▁سبد": 4291,
    "▁دانشمند": 4292,
    "▁مدرک": 4293,
    "▁کیلیان": 4294,
    "▁2012": 4295,
    "▁گوگل": 4296,
    "▁فلسطینیها": 4297,
    "▁بازدید": 4298,
    "▁دزدی": 4299,
    "خان": 4300,
    "▁قوی": 4301,
    "▁مهربان": 4302,
    "▁موسی": 4303,
    "▁91": 4304,
    "▁کمپ": 4305,
    "▁تخلفات": 4306,
    "500": 4307,
    "▁نکند": 4308,
    "▁دیاز": 4309,
    "▁128": 4310,
    "رگا": 4311,
    "▁سپت": 4312,
    "▁رستم": 4313,
    "▁پیکر": 4314,
    "ظاهرا": 4315,
    "▁تسو": 4316,
    "▁اعتراضات": 4317,
    "▁ته": 4318,
    "اقت": 4319,
    "▁صلاحیتها": 4320,
    "▁انجامشدهاست": 4321,
    "▁هراز": 4322,
    "رامی": 4323,
    "▁آذری": 4324,
    "دیده": 4325,
    "▁برخوردار": 4326,
    "▁پاسخگوی": 4327,
    "or": 4328,
    "انگیز": 4329,
    "نژاد": 4330,
    "مهر": 4331,
    "شدهبر": 4332,
    "▁دستگاههای": 4333,
    "▁پیشرفتهای": 4334,
    "▁مخاطب": 4335,
    "▁مامور": 4336,
    "▁آسم": 4337,
    "▁موری": 4338,
    "▁فیلمهای": 4339,
    "▁شکستن": 4340,
    "▁جابجا": 4341,
    "▁بپیوند": 4342,
    "▁حاکم": 4343,
    "est": 4344,
    "▁اعتقاد": 4345,
    "▁اولدترافورد": 4346,
    "▁اینفوگرافی": 4347,
    "▁تقسیم": 4348,
    "▁تقلب": 4349,
    "▁خوشبخت": 4350,
    "▁راهپیمایی": 4351,
    "▁زاغری": 4352,
    "▁علیهالسلام": 4353,
    "▁متعاقب": 4354,
    "▁مقطع": 4355,
    "▁وردربرمن": 4356,
    "▁پوگبا": 4357,
    "▁توپچیها": 4358,
    "▁مطلق": 4359,
    "▁وولفسبورگ": 4360,
    "▁کلابهاوس": 4361,
    "▁کلمبیا": 4362,
    "▁2016": 4363,
    "▁اخلال": 4364,
    "▁شرکتها": 4365,
    "▁کوثر": 4366,
    "▁دستاورد": 4367,
    "▁الاسد": 4368,
    "▁بازتاب": 4369,
    "▁عاشور": 4370,
    "▁نمیکرد": 4371,
    "▁ملاقات": 4372,
    "▁عمق": 4373,
    "▁یازدهم": 4374,
    "▁خاتم": 4375,
    "▁ابهام": 4376,
    "▁مارچ": 4377,
    "▁نیکشهر": 4378,
    "▁شیمیایی": 4379,
    "▁همشهری": 4380,
    "▁کیهان": 4381,
    "▁سکونت": 4382,
    "▁غلط": 4383,
    "▁خواننده": 4384,
    "▁خرج": 4385,
    "▁نوزاد": 4386,
    "▁استانبول": 4387,
    "▁ملیندا": 4388,
    "▁بوکس": 4389,
    "▁مصلحت": 4390,
    "▁مهاجرت": 4391,
    "یپاس": 4392,
    "▁حجت": 4393,
    "▁تیتر": 4394,
    "▁احمدزاده": 4395,
    "▁پاستور": 4396,
    "ذرت": 4397,
    "▁کویت": 4398,
    "▁مدعیشده": 4399,
    "باد": 4400,
    "▁بدتر": 4401,
    "▁بالین": 4402,
    "▁ورزشکاران": 4403,
    "▁انجامشده": 4404,
    "▁میدن": 4405,
    "▁نفتکش": 4406,
    "▁علم": 4407,
    "▁گرفتهاند": 4408,
    "▁خودشو": 4409,
    "▁نرسیده": 4410,
    "▁فق": 4411,
    "▁جیب": 4412,
    "▁خواهندبود": 4413,
    "باف": 4414,
    "▁نوروز": 4415,
    "▁عجل": 4416,
    "ub": 4417,
    "▁تحصیل": 4418,
    "▁250": 4419,
    "▁صوت": 4420,
    "▁فرق": 4421,
    "تزیو": 4422,
    "شاه": 4423,
    "▁علیر": 4424,
    "▁کنون": 4425,
    "▁دادگ": 4426,
    "▁آقایان": 4427,
    "▁رویای": 4428,
    "▁خانههای": 4429,
    "▁روانی": 4430,
    "▁یکبار": 4431,
    "▁عط": 4432,
    "رعی": 4433,
    "▁مدتها": 4434,
    "▁نمایند": 4435,
    "▁ژان": 4436,
    "▁پروتکل": 4437,
    "▁داوطلب": 4438,
    "▁رویایی": 4439,
    "▁گفتوگوها": 4440,
    "خبر": 4441,
    "▁خودروها": 4442,
    "▁کیل": 4443,
    "▁پرافتخار": 4444,
    "▁اسلاویا": 4445,
    "▁الریاضی": 4446,
    "▁تدریج": 4447,
    "▁جاسمیان": 4448,
    "▁حوادث": 4449,
    "▁زودهنگام": 4450,
    "▁متقاضی": 4451,
    "▁پژمان": 4452,
    "▁کهکشانیها": 4453,
    "▁سانچو": 4454,
    "▁مرجع": 4455,
    "▁جرارد": 4456,
    "▁شایسته": 4457,
    "▁میگردد": 4458,
    "تحمل": 4459,
    "▁نمیکنه": 4460,
    "▁کلاسیکو": 4461,
    "▁قبال": 4462,
    "▁فراخوان": 4463,
    "▁ریشتر": 4464,
    "▁حبیب": 4465,
    "▁تائید": 4466,
    "▁نمره": 4467,
    "▁میهمان": 4468,
    "▁رودخانه": 4469,
    "▁پاسپورت": 4470,
    "▁معیار": 4471,
    "▁حزبالله": 4472,
    "▁گرامی": 4473,
    "▁رصد": 4474,
    "▁نگار": 4475,
    "▁توانایی": 4476,
    "▁CA": 4477,
    "▁تیرماه": 4478,
    "▁لرزه": 4479,
    "▁ملاک": 4480,
    "▁کولر": 4481,
    "▁mohsen": 4482,
    "صرفا": 4483,
    "▁پاریسیها": 4484,
    "▁اوت": 4485,
    "▁سنگک": 4486,
    "▁اتهامات": 4487,
    "▁الگو": 4488,
    "پریل": 4489,
    "سیو": 4490,
    "▁سوالات": 4491,
    "▁آاک": 4492,
    "▁بیماریهای": 4493,
    "▁نکردند": 4494,
    "وژه": 4495,
    "راق": 4496,
    "▁بشن": 4497,
    "▁بدیم": 4498,
    "▁کاظم": 4499,
    "▁میدانیم": 4500,
    "▁طلب": 4501,
    "▁خنت": 4502,
    "▁اومده": 4503,
    "ضه": 4504,
    "▁دستورالعملها": 4505,
    "▁کیش": 4506,
    "▁روستا": 4507,
    "▁محورهای": 4508,
    "▁گیگ": 4509,
    "▁هوم": 4510,
    "▁لر": 4511,
    "▁سرزمینها": 4512,
    "▁وعدههای": 4513,
    "▁گرفتیم": 4514,
    "▁مخا": 4515,
    "▁کیو": 4516,
    "▁چیه": 4517,
    "یافته": 4518,
    "▁126": 4519,
    "▁مباد": 4520,
    "جز": 4521,
    "عارف": 4522,
    "▁فتا": 4523,
    "un": 4524,
    "▁127": 4525,
    "دالله": 4526,
    "▁سریعتر": 4527,
    "▁پلاس": 4528,
    "▁عفو": 4529,
    "▁اوساسونا": 4530,
    "▁بعدازظهر": 4531,
    "▁تمجید": 4532,
    "▁رویارویی": 4533,
    "▁سوسیداد": 4534,
    "▁سیگنال": 4535,
    "▁ضبط": 4536,
    "▁طلسم": 4537,
    "▁مارادونا": 4538,
    "▁جامجهانی": 4539,
    "▁دونتسک": 4540,
    "▁فریدون": 4541,
    "▁تهاجم": 4542,
    "▁فشرد": 4543,
    "▁دائم": 4544,
    "▁نجوم": 4545,
    "▁نقدینگی": 4546,
    "▁میرویم": 4547,
    "▁قایقران": 4548,
    "▁نوسان": 4549,
    "▁راجع": 4550,
    "▁الشر": 4551,
    "▁فقیر": 4552,
    "▁آتشنشان": 4553,
    "▁تفکر": 4554,
    "▁فیکس": 4555,
    "پایی": 4556,
    "▁ضرر": 4557,
    "▁خداداد": 4558,
    "▁فیلتر": 4559,
    "▁فخرالدینی": 4560,
    "▁باپه": 4561,
    "▁اونجا": 4562,
    "▁کشاورزان": 4563,
    "▁نکنیم": 4564,
    "▁عظیم": 4565,
    "▁2011": 4566,
    "ینیو": 4567,
    "▁کارگزاران": 4568,
    "▁افتخارات": 4569,
    "▁انش": 4570,
    "▁شناخته": 4571,
    "▁پوست": 4572,
    "▁هوادارای": 4573,
    "▁کشیدن": 4574,
    "▁ایالت": 4575,
    "▁بودهاند": 4576,
    "▁رویداد": 4577,
    "▁شام": 4578,
    "▁مهاجمان": 4579,
    "راث": 4580,
    "▁رزاق": 4581,
    "▁بزنه": 4582,
    "▁میرزایی": 4583,
    "▁محمدزاده": 4584,
    "▁لوو": 4585,
    "▁سیمان": 4586,
    "▁آغازشدهاست": 4587,
    "▁چار": 4588,
    "▁دم": 4589,
    "▁آخوند": 4590,
    "▁بینالملل": 4591,
    "▁مستمری": 4592,
    "▁بازم": 4593,
    "▁آهنین": 4594,
    "▁کنگ": 4595,
    "یونگ": 4596,
    "▁میداند": 4597,
    "▁هت": 4598,
    "▁سارا": 4599,
    "▁رسو": 4600,
    "رسلو": 4601,
    "جار": 4602,
    "▁فوتیها": 4603,
    "ختم": 4604,
    "▁آید": 4605,
    "▁تجار": 4606,
    "▁تسلی": 4607,
    "▁تخص": 4608,
    "▁Varzesh": 4609,
    "▁hafttyek": 4610,
    "▁آسترازنکا": 4611,
    "▁اشخاص": 4612,
    "▁تدابیر": 4613,
    "▁سوئاستفاده": 4614,
    "▁فرگوسن": 4615,
    "▁لینگارد": 4616,
    "▁مرحوم": 4617,
    "▁مستاجر": 4618,
    "▁مصنوعی": 4619,
    "▁پشتیبانی": 4620,
    "▁اجماع": 4621,
    "▁باقیمانده": 4622,
    "▁علائم": 4623,
    "▁نمیرسد": 4624,
    "▁کابوس": 4625,
    "▁Thi": 4626,
    "▁یونیون": 4627,
    "▁اشرار": 4628,
    "▁حردانی": 4629,
    "▁غریب": 4630,
    "▁مغازه": 4631,
    "▁ملخ": 4632,
    "▁نریمان": 4633,
    "▁الهامی": 4634,
    "▁لوسیا": 4635,
    "طارق": 4636,
    "▁وسایل": 4637,
    "▁مدنظر": 4638,
    "▁محک": 4639,
    "▁پیشرفته": 4640,
    "▁دوئل": 4641,
    "▁کیفری": 4642,
    "▁سهامداران": 4643,
    "▁نیامد": 4644,
    "▁2014": 4645,
    "▁شیشه": 4646,
    "▁تردید": 4647,
    "▁2025": 4648,
    "ika": 4649,
    "▁هویت": 4650,
    "▁ولز": 4651,
    "▁سرنشین": 4652,
    "نگتن": 4653,
    "▁کارلوس": 4654,
    "▁واتس": 4655,
    "▁شوراها": 4656,
    "▁فاش": 4657,
    "▁میزند": 4658,
    "▁خانوادههای": 4659,
    "▁جهانپور": 4660,
    "▁بستگ": 4661,
    "▁عضویت": 4662,
    "▁پاشا": 4663,
    "▁دیلی": 4664,
    "موندو": 4665,
    "▁آزادگان": 4666,
    "▁کیف": 4667,
    "▁78": 4668,
    "▁جزئ": 4669,
    "▁منته": 4670,
    "▁160": 4671,
    "▁آهنگ": 4672,
    "▁نداشتم": 4673,
    "▁مبنای": 4674,
    "▁رئالیا": 4675,
    "97": 4676,
    "▁عزیزان": 4677,
    "▁فان": 4678,
    "▁خودتون": 4679,
    "▁نکردن": 4680,
    "▁هشتگ": 4681,
    "مایکل": 4682,
    "▁کوبا": 4683,
    "▁نزدیکتر": 4684,
    "تاپ": 4685,
    "▁توانسته": 4686,
    "زگی": 4687,
    "حجاب": 4688,
    "منچستر": 4689,
    "راضی": 4690,
    "هشتم": 4691,
    "▁مور": 4692,
    "▁گرفتهشده": 4693,
    "دیگر": 4694,
    "اشون": 4695,
    "▁سالیان": 4696,
    "▁مهاجر": 4697,
    "▁آنتونی": 4698,
    "▁شاخ": 4699,
    "▁استراماچونی": 4700,
    "▁الدوحه": 4701,
    "▁بوحمدان": 4702,
    "▁تضعیف": 4703,
    "▁ثبات": 4704,
    "▁عیدفطر": 4705,
    "▁فاطمه": 4706,
    "▁قرضالحسنه": 4707,
    "▁لوکوموتیو": 4708,
    "▁نمیدونم": 4709,
    "▁وینیسیوس": 4710,
    "▁کاغذ": 4711,
    "▁اندروید": 4712,
    "▁تحقیر": 4713,
    "▁توصیف": 4714,
    "▁حمدالله": 4715,
    "▁مخفی": 4716,
    "▁قطار": 4717,
    "▁متخلف": 4718,
    "▁نمیکنند": 4719,
    "▁میگیرند": 4720,
    "▁پاندمی": 4721,
    "▁میآورد": 4722,
    "▁قنبر": 4723,
    "▁جاسک": 4724,
    "غراف": 4725,
    "▁بگذارید": 4726,
    "▁ذخیره": 4727,
    "▁بارندگی": 4728,
    "▁سعد": 4729,
    "▁واسطه": 4730,
    "▁ایبرا": 4731,
    "▁بدانند": 4732,
    "▁خواهم": 4733,
    "▁یاسین": 4734,
    "▁گلیزر": 4735,
    "▁پیروانی": 4736,
    "▁دردسر": 4737,
    "▁یهودی": 4738,
    "▁جانباخت": 4739,
    "▁رفاه": 4740,
    "aba": 4741,
    "▁پائول": 4742,
    "▁عرض": 4743,
    "▁محرمانه": 4744,
    "▁کلینیک": 4745,
    "▁تاکسی": 4746,
    "▁لوگو": 4747,
    "▁روبرتو": 4748,
    "▁خواندن": 4749,
    "▁مثلث": 4750,
    "▁دیدگی": 4751,
    "▁هزارتومان": 4752,
    "▁سرشناس": 4753,
    "▁خنده": 4754,
    "▁راهداری": 4755,
    "کایت": 4756,
    "▁پایینتر": 4757,
    "▁دفا": 4758,
    "هالی": 4759,
    "▁1000": 4760,
    "▁میزد": 4761,
    "پشن": 4762,
    "▁بدهند": 4763,
    "▁پاد": 4764,
    "▁دوگانه": 4765,
    "▁فلیکس": 4766,
    "یعه": 4767,
    "▁علیاری": 4768,
    "باخت": 4769,
    "▁برداشتن": 4770,
    "▁کارگاه": 4771,
    "نشان": 4772,
    "▁مرا": 4773,
    "▁اینقدر": 4774,
    "یگور": 4775,
    "▁بکش": 4776,
    "▁قل": 4777,
    "▁اشت": 4778,
    "▁عملا": 4779,
    "▁مرزهای": 4780,
    "سنجی": 4781,
    "خدایی": 4782,
    "▁جعفر": 4783,
    "▁نامدار": 4784,
    "om": 4785,
    "سکی": 4786,
    "سیر": 4787,
    "▁بوت": 4788,
    "▁سیرو": 4789,
    "▁یافتند": 4790,
    "▁بلو": 4791,
    "▁فیل": 4792,
    "فرج": 4793,
    "ویژه": 4794,
    "▁نهاده": 4795,
    "▁مکه": 4796,
    "▁La": 4797,
    "▁کوچ": 4798,
    "▁وقف": 4799,
    "▁میرزا": 4800,
    "liga": 4801,
    "▁app": 4802,
    "▁newspaper": 4803,
    "▁اسلحه": 4804,
    "▁اسکودتو": 4805,
    "▁اشتغال": 4806,
    "▁ایرلند": 4807,
    "▁ایکاردی": 4808,
    "▁باواریاییها": 4809,
    "▁بولونیا": 4810,
    "▁تخلیه": 4811,
    "▁ترائوره": 4812,
    "▁خاورمیانه": 4813,
    "▁زیرساخت": 4814,
    "▁شریعت": 4815,
    "▁مثقال": 4816,
    "▁محاسبه": 4817,
    "▁محافظت": 4818,
    "▁ژنرال": 4819,
    "▁بیتکوین": 4820,
    "▁مکزیک": 4821,
    "▁گریزمان": 4822,
    "▁حفاری": 4823,
    "▁ضرورت": 4824,
    "▁سانسور": 4825,
    "▁عبارت": 4826,
    "▁مستعد": 4827,
    "▁همیلتون": 4828,
    "▁کرواسی": 4829,
    "▁متولد": 4830,
    "onte": 4831,
    "▁بذار": 4832,
    "▁مریخ": 4833,
    "▁شکوه": 4834,
    "▁نانوای": 4835,
    "▁فریاد": 4836,
    "▁چنان": 4837,
    "▁تالاب": 4838,
    "▁استثنا": 4839,
    "لینکن": 4840,
    "▁یادآور": 4841,
    "▁تاجزاده": 4842,
    "▁مولد": 4843,
    "▁اکبرپور": 4844,
    "کبیر": 4845,
    "▁مصطفوی": 4846,
    "▁بشر": 4847,
    "▁جبار": 4848,
    "▁ونگر": 4849,
    "آویو": 4850,
    "▁هیجان": 4851,
    "رزاق": 4852,
    "▁میزنند": 4853,
    "جویی": 4854,
    "▁مناظره": 4855,
    "▁channel": 4856,
    "▁جمال": 4857,
    "▁دیگو": 4858,
    "tt": 4859,
    "▁کمپین": 4860,
    "▁سایه": 4861,
    "▁مطلب": 4862,
    "▁میگرفت": 4863,
    "▁ساکت": 4864,
    "▁سق": 4865,
    "▁برانگیز": 4866,
    "▁شهدا": 4867,
    "▁بقا": 4868,
    "▁پرسید": 4869,
    "▁نکردیم": 4870,
    "▁فرهنگ": 4871,
    "رع": 4872,
    "گراد": 4873,
    "▁فتو": 4874,
    "▁نداشتن": 4875,
    "▁بروند": 4876,
    "▁ویزا": 4877,
    "▁آذر": 4878,
    "0000": 4879,
    "▁وکلا": 4880,
    "▁خیز": 4881,
    "▁امکانات": 4882,
    "▁اشتباهات": 4883,
    "▁فروشگاهها": 4884,
    "▁بدهیم": 4885,
    "▁دیدم": 4886,
    "45": 4887,
    "ستون": 4888,
    "▁مدار": 4889,
    "▁آرزو": 4890,
    "▁گره": 4891,
    "▁کاندیداها": 4892,
    "ut": 4893,
    "▁ملا": 4894,
    "باقر": 4895,
    "▁اورس": 4896,
    "وج": 4897,
    "▁روحیه": 4898,
    "میرزایی": 4899,
    "اردیبهشت": 4900,
    "قاسم": 4901,
    "▁دزد": 4902,
    "میدانی": 4903,
    "49": 4904,
    "▁جنای": 4905,
    "▁ندارن": 4906,
    "▁انس": 4907,
    "نظیر": 4908,
    "▁مونت": 4909,
    "artners": 4910,
    "▁FATF": 4911,
    "▁انستیتو": 4912,
    "▁تجاوز": 4913,
    "▁دغدغه": 4914,
    "▁دوناروما": 4915,
    "▁زمستان": 4916,
    "▁سانتریفیوژها": 4917,
    "▁قرائت": 4918,
    "▁مظلوم": 4919,
    "▁وایادولید": 4920,
    "▁گرینوود": 4921,
    "▁یوتیوب": 4922,
    "▁یکطرفه": 4923,
    "▁تسلیحات": 4924,
    "▁غیرمجاز": 4925,
    "▁نباشید": 4926,
    "▁هیچکدام": 4927,
    "▁تظاهرات": 4928,
    "▁نتونست": 4929,
    "▁دیوید": 4930,
    "▁طعم": 4931,
    "▁میدونی": 4932,
    "▁بولز": 4933,
    "▁میمونه": 4934,
    "کوویچ": 4935,
    "▁میگیریم": 4936,
    "▁افسانه": 4937,
    "▁نیکولا": 4938,
    "▁2013": 4939,
    "▁کعب": 4940,
    "▁قاسمینژاد": 4941,
    "▁تیمملی": 4942,
    "▁لنگ": 4943,
    "وریس": 4944,
    "فرمایید": 4945,
    "▁ایفا": 4946,
    "▁ماینتس": 4947,
    "▁021": 4948,
    "▁سیلوا": 4949,
    "▁بلیت": 4950,
    "▁تندرو": 4951,
    "▁خصوصیسازی": 4952,
    "▁مراکش": 4953,
    "▁فجر": 4954,
    "▁تعیینکننده": 4955,
    "▁نکردهاند": 4956,
    "▁بگید": 4957,
    "▁پرستو": 4958,
    "▁کروات": 4959,
    "▁گونهای": 4960,
    "▁رحمان": 4961,
    "▁یولی": 4962,
    "▁پوچ": 4963,
    "زدن": 4964,
    "▁شجاعت": 4965,
    "▁راهکار": 4966,
    "▁نداشتند": 4967,
    "▁بلد": 4968,
    "▁کلید": 4969,
    "▁دیوانه": 4970,
    "▁گرند": 4971,
    "▁آنتی": 4972,
    "▁جولا": 4973,
    "▁نرم": 4974,
    "▁مکر": 4975,
    "▁واردشدهاست": 4976,
    "ng": 4977,
    "▁محض": 4978,
    "▁بوس": 4979,
    "▁سالاری": 4980,
    "▁ربیع": 4981,
    "▁آفریقا": 4982,
    "▁قائد": 4983,
    "89": 4984,
    "ur": 4985,
    "▁136": 4986,
    "▁تنشها": 4987,
    "▁ابلاغیه": 4988,
    "▁بیکار": 4989,
    "▁هور": 4990,
    "روح": 4991,
    "▁استخوان": 4992,
    "عباس": 4993,
    "زادگان": 4994,
    "hip": 4995,
    "▁بازگرداند": 4996,
    "پایه": 4997,
    "▁2000": 4998,
    "دنبال": 4999,
    "▁نوجوان": 5000,
    "حمیدی": 5001,
    "▁مقدم": 5002,
    "▁روبرت": 5003,
    "زیار": 5004,
    "باغچه": 5005,
    "▁AAAAA": 5006,
    "وئن": 5007,
    "▁مرتب": 5008,
    "vide": 5009,
    "مپئو": 5010,
    "▁ارجاع": 5011,
    "▁بختیاری": 5012,
    "▁تورنومنت": 5013,
    "▁توطئه": 5014,
    "▁حقوقبشر": 5015,
    "▁دیبالا": 5016,
    "▁زباله": 5017,
    "▁شمشیر": 5018,
    "▁ضمانت": 5019,
    "▁لزوم": 5020,
    "▁متمرکز": 5021,
    "▁مجارستان": 5022,
    "▁مرخص": 5023,
    "▁معصوم": 5024,
    "▁مقاطع": 5025,
    "▁موناکو": 5026,
    "▁ولفسبورگ": 5027,
    "▁پرستیوی": 5028,
    "▁پسلرزه": 5029,
    "▁کارواخال": 5030,
    "▁کامبوج": 5031,
    "▁گاتزتا": 5032,
    "▁بزودی": 5033,
    "▁چالوس": 5034,
    "▁ترسناک": 5035,
    "▁شلوغ": 5036,
    "▁زووله": 5037,
    "▁نباشند": 5038,
    "▁هندوستان": 5039,
    "▁مطلوب": 5040,
    "▁ناامید": 5041,
    "▁ترجمه": 5042,
    "▁میگویم": 5043,
    "▁مثال": 5044,
    "▁کیروش": 5045,
    "▁تدوین": 5046,
    "▁آلابا": 5047,
    "▁بیلسا": 5048,
    "▁تشری": 5049,
    "▁پادشاه": 5050,
    "▁صحرای": 5051,
    "▁بیهوش": 5052,
    "▁استعداد": 5053,
    "▁مفید": 5054,
    "▁برومویچ": 5055,
    "▁انگار": 5056,
    "▁لرستان": 5057,
    "▁سرایت": 5058,
    "▁برآورد": 5059,
    "▁سوچی": 5060,
    "▁بشیم": 5061,
    "▁زیان": 5062,
    "▁لپ": 5063,
    "▁روبن": 5064,
    "▁کارمند": 5065,
    "▁اذیت": 5066,
    "▁فودن": 5067,
    "▁دادسرا": 5068,
    "▁بینظیر": 5069,
    "▁شفافیت": 5070,
    "▁دپو": 5071,
    "▁چاپ": 5072,
    "▁سلول": 5073,
    "▁رنگبندی": 5074,
    "▁پروانه": 5075,
    "▁تفنگ": 5076,
    "▁نرفت": 5077,
    "▁خبرآنلاین": 5078,
    "▁اروم": 5079,
    "▁ایلام": 5080,
    "▁نمایشگاه": 5081,
    "▁درآورد": 5082,
    "▁اهم": 5083,
    "▁ریشه": 5084,
    "▁مهرماه": 5085,
    "▁چنگ": 5086,
    "▁اقتدا": 5087,
    "▁بزنند": 5088,
    "▁پارسال": 5089,
    "▁بولی": 5090,
    "هاشون": 5091,
    "▁فاسد": 5092,
    "عضل": 5093,
    "▁اسپا": 5094,
    "▁وحشت": 5095,
    "▁افشار": 5096,
    "ادن": 5097,
    "▁دهید": 5098,
    "▁الکس": 5099,
    "وارد": 5100,
    "12": 5101,
    "▁تعیینشده": 5102,
    "▁همدل": 5103,
    "▁نخواهدبود": 5104,
    "▁آریا": 5105,
    "▁132": 5106,
    "جدی": 5107,
    "▁بخشید": 5108,
    "▁گرا": 5109,
    "▁قویتر": 5110,
    "▁هماهنگ": 5111,
    "▁شغل": 5112,
    "گروه": 5113,
    "▁موتو": 5114,
    "▁شرب": 5115,
    "▁دیوان": 5116,
    "مستقیم": 5117,
    "کیلوگرم": 5118,
    "زمینی": 5119,
    "dar": 5120,
    "عرض": 5121,
    "18": 5122,
    "▁کارگزار": 5123,
    "▁هموطن": 5124,
    "85": 5125,
    "▁لذ": 5126,
    "▁قضا": 5127,
    "▁آفساید": 5128,
    "▁آپارات": 5129,
    "▁استراسبورگ": 5130,
    "▁اوساکا": 5131,
    "▁حناچی": 5132,
    "▁شفیلدیونایتد": 5133,
    "▁غرامت": 5134,
    "▁متعدد": 5135,
    "▁نوشیصوفیانی": 5136,
    "▁پانزدهم": 5137,
    "▁کاسمیرو": 5138,
    "▁یخچال": 5139,
    "ژورنال": 5140,
    "▁بنیانگذار": 5141,
    "▁ثانوی": 5142,
    "▁زحمت": 5143,
    "▁موظف": 5144,
    "▁گنبد": 5145,
    "▁ویژگی": 5146,
    "▁رنجرز": 5147,
    "▁میرساند": 5148,
    "▁نصیر": 5149,
    "▁اموال": 5150,
    "▁کلانشهر": 5151,
    "▁برطرف": 5152,
    "▁بگذارد": 5153,
    "▁سیگار": 5154,
    "▁پرویز": 5155,
    "▁میگیره": 5156,
    "▁نصف": 5157,
    "▁سلتیک": 5158,
    "▁قانع": 5159,
    "▁نرسیدهایم": 5160,
    "▁راجرز": 5161,
    "▁موندن": 5162,
    "▁صیاد": 5163,
    "▁ماریو": 5164,
    "▁شرم": 5165,
    "▁بنادر": 5166,
    "▁نیروگاه": 5167,
    "co": 5168,
    "▁چمن": 5169,
    "▁قدردان": 5170,
    "▁خیریه": 5171,
    "▁هفتاد": 5172,
    "▁غیاب": 5173,
    "▁جادو": 5174,
    "▁بزنید": 5175,
    "وچی": 5176,
    "▁دف": 5177,
    "▁مرگبار": 5178,
    "▁بزرگوار": 5179,
    "حباب": 5180,
    "▁نویر": 5181,
    "▁جلیل": 5182,
    "▁موسا": 5183,
    "▁دستکاری": 5184,
    "▁اذ": 5185,
    "▁بازنده": 5186,
    "▁قبر": 5187,
    "▁برمیگرده": 5188,
    "تزا": 5189,
    "▁اتریش": 5190,
    "▁رغ": 5191,
    "کریم": 5192,
    "▁بیبی": 5193,
    "▁سختترین": 5194,
    "▁معترضان": 5195,
    "▁منتشرشدهاست": 5196,
    "▁خواهیمبود": 5197,
    "▁گرت": 5198,
    "▁میکردیم": 5199,
    "راتب": 5200,
    "گیلو": 5201,
    "▁ناکام": 5202,
    "بورگ": 5203,
    "▁برمی": 5204,
    "▁تنهایی": 5205,
    "▁کتب": 5206,
    "▁مدل": 5207,
    "▁تکل": 5208,
    "شدهبا": 5209,
    "▁مهیا": 5210,
    "▁مورا": 5211,
    "▁تورین": 5212,
    "▁نشوند": 5213,
    "▁اعضا": 5214,
    "ونالد": 5215,
    "نفی": 5216,
    "▁نزن": 5217,
    "▁مدرس": 5218,
    "▁طب": 5219,
    "آنلاین": 5220,
    "رحمت": 5221,
    "▁فقر": 5222,
    "▁بدنساز": 5223,
    "▁دانشآموز": 5224,
    "76": 5225,
    "▁همهگیر": 5226,
    "▁حیوان": 5227,
    "حقق": 5228,
    "▁نتوان": 5229,
    "▁کول": 5230,
    "port": 5231,
    "stores": 5232,
    "▁اردیویسه": 5233,
    "▁استیضاح": 5234,
    "▁اورانیوم": 5235,
    "▁بالستیک": 5236,
    "▁بپردازد": 5237,
    "▁تحمیل": 5238,
    "▁تصریح": 5239,
    "▁صاعقه": 5240,
    "▁عبدالعزی": 5241,
    "▁علاقمند": 5242,
    "▁غیرممکن": 5243,
    "▁قوچان": 5244,
    "▁لرزاند": 5245,
    "▁محاکمه": 5246,
    "▁محسوس": 5247,
    "▁هولشتاین": 5248,
    "▁افسردگی": 5249,
    "▁رانندگی": 5250,
    "▁فضانورد": 5251,
    "▁کشتار": 5252,
    "▁گوسفند": 5253,
    "▁آژیر": 5254,
    "▁اکیپ": 5255,
    "▁تعاون": 5256,
    "▁صندلی": 5257,
    "▁هیچوقت": 5258,
    "▁منفجر": 5259,
    "▁میجنگ": 5260,
    "▁ناواس": 5261,
    "رئوف": 5262,
    "▁جناب": 5263,
    "▁عقیل": 5264,
    "▁فیلیپ": 5265,
    "▁مارینو": 5266,
    "▁سناریو": 5267,
    "▁بلوکهشده": 5268,
    "▁بالگرد": 5269,
    "▁رهبرانقلاب": 5270,
    "▁ناامن": 5271,
    "▁جسم": 5272,
    "▁مافیا": 5273,
    "▁آپارتمان": 5274,
    "▁تلقی": 5275,
    "▁یادداشت": 5276,
    "▁مبت": 5277,
    "▁هنگفت": 5278,
    "▁تونست": 5279,
    "▁میزنه": 5280,
    "▁فیلمبرداری": 5281,
    "▁پژو": 5282,
    "▁im": 5283,
    "▁حاکمیت": 5284,
    "▁خوشبین": 5285,
    "جونیور": 5286,
    "خط": 5287,
    "▁بویر": 5288,
    "aar": 5289,
    "▁نروژ": 5290,
    "▁ردیف": 5291,
    "▁عروس": 5292,
    "▁وزارتخانه": 5293,
    "▁لایو": 5294,
    "غرب": 5295,
    "▁خوز": 5296,
    "▁بخشنامه": 5297,
    "▁جسی": 5298,
    "▁2008": 5299,
    "▁129": 5300,
    "▁زنگ": 5301,
    "▁هموطنان": 5302,
    "▁قیمتگذاری": 5303,
    "▁تعیینشدهاست": 5304,
    "▁دادهبودند": 5305,
    "▁هنرمندان": 5306,
    "▁ناوگ": 5307,
    "وبرق": 5308,
    "▁بالاست": 5309,
    "نازل": 5310,
    "خاطر": 5311,
    "▁آذربا": 5312,
    "▁اندک": 5313,
    "▁کلمه": 5314,
    "کردن": 5315,
    "▁شکار": 5316,
    "▁پاسخگو": 5317,
    "▁داراییها": 5318,
    "▁یگان": 5319,
    "▁لویی": 5320,
    "▁مستمر": 5321,
    "▁تاکتیک": 5322,
    "▁زال": 5323,
    "10": 5324,
    "▁گویا": 5325,
    "▁بدر": 5326,
    "▁نوساز": 5327,
    "موسوی": 5328,
    "سریع": 5329,
    "شروع": 5330,
    "خرید": 5331,
    "▁شناخت": 5332,
    "▁قضائی": 5333,
    "▁پیرو": 5334,
    "gha": 5335,
    "▁ضر": 5336,
    "سبوک": 5337,
    "فاهی": 5338,
    "▁نعم": 5339,
    "▁تدارک": 5340,
    "afe": 5341,
    "baz": 5342,
    "▁parsine": 5343,
    "▁آسوشیتدپرس": 5344,
    "▁احتیاط": 5345,
    "▁اسلوونی": 5346,
    "▁اقبال": 5347,
    "▁بایرنمونیخ": 5348,
    "▁براگا": 5349,
    "▁حجتالاسلام": 5350,
    "▁حریرچی": 5351,
    "▁خورشیدی": 5352,
    "▁دموکرات": 5353,
    "▁دیناموزاگرب": 5354,
    "▁رستوران": 5355,
    "▁شارلوا": 5356,
    "▁ضوابط": 5357,
    "▁قشقایی": 5358,
    "▁مارکینیوش": 5359,
    "▁نیوکمپ": 5360,
    "▁وبسایت": 5361,
    "▁وظایف": 5362,
    "▁چوپوموتینگ": 5363,
    "▁1398": 5364,
    "▁ACL": 5365,
    "▁اعطا": 5366,
    "▁ایجنت": 5367,
    "▁سلطنت": 5368,
    "▁شریعتمداری": 5369,
    "▁ضامن": 5370,
    "▁تفریح": 5371,
    "▁سمیعی": 5372,
    "▁سوپرکاپ": 5373,
    "▁متناسب": 5374,
    "▁منتفی": 5375,
    "▁پاراوزنه": 5376,
    "▁پرخطر": 5377,
    "▁قحط": 5378,
    "▁میگذرد": 5379,
    "▁گروگان": 5380,
    "▁مفصل": 5381,
    "▁قرص": 5382,
    "▁بجنگ": 5383,
    "▁نمیدهند": 5384,
    "▁عادت": 5385,
    "▁ریکاوری": 5386,
    "▁go": 5387,
    "▁تارتار": 5388,
    "▁ومبلی": 5389,
    "▁بگویم": 5390,
    "▁افشاگری": 5391,
    "▁پرهیز": 5392,
    "▁رویکرد": 5393,
    "adio": 5394,
    "▁صمیم": 5395,
    "▁کوپه": 5396,
    "▁تاشکند": 5397,
    "▁حکیم": 5398,
    "▁مجله": 5399,
    "▁بازوبند": 5400,
    "▁عصبی": 5401,
    "▁انریک": 5402,
    "▁آلگری": 5403,
    "▁ادوارد": 5404,
    "▁پنهان": 5405,
    "▁قائمشهر": 5406,
    "estan": 5407,
    "▁شیمی": 5408,
    "▁قاتل": 5409,
    "▁خشن": 5410,
    "▁کشتن": 5411,
    "▁بلبل": 5412,
    "▁متعهد": 5413,
    "▁فقیه": 5414,
    "فضلی": 5415,
    "▁532": 5416,
    "▁رومانی": 5417,
    "▁نشدهاند": 5418,
    "▁پیوند": 5419,
    "▁سلیمی": 5420,
    "▁میخوایم": 5421,
    "▁بشار": 5422,
    "▁دهلی": 5423,
    "▁بگیرن": 5424,
    "▁سینمایی": 5425,
    "▁بفروش": 5426,
    "el": 5427,
    "لاستیک": 5428,
    "▁شیرها": 5429,
    "▁نادرست": 5430,
    "▁وطن": 5431,
    "▁معده": 5432,
    "▁آنسو": 5433,
    "مپیو": 5434,
    "نصر": 5435,
    "14": 5436,
    "▁موعد": 5437,
    "▁رمزارز": 5438,
    "▁پیگیر": 5439,
    "▁پارا": 5440,
    "▁بدیه": 5441,
    "▁آموز": 5442,
    "رئال": 5443,
    "▁باهاش": 5444,
    "فوری": 5445,
    "▁mehr": 5446,
    "▁اسلاویاپراگ": 5447,
    "▁اضطراب": 5448,
    "▁انگلستان": 5449,
    "▁تدبیر": 5450,
    "▁خلعتبری": 5451,
    "▁ذوالفقارنسب": 5452,
    "▁سوادکوه": 5453,
    "▁غرضی": 5454,
    "▁فارنسی": 5455,
    "▁لازمالاجرا": 5456,
    "▁لیتوانی": 5457,
    "▁معتمدی": 5458,
    "▁مقدونیه": 5459,
    "▁نوشیدن": 5460,
    "▁هایلایت": 5461,
    "▁هفدهم": 5462,
    "▁ویکتوریا": 5463,
    "▁پنتاگون": 5464,
    "▁کرباسچی": 5465,
    "▁گرجستان": 5466,
    "▁ارتقا": 5467,
    "▁انحصار": 5468,
    "▁تعزیر": 5469,
    "▁عارضه": 5470,
    "▁عثمان": 5471,
    "▁واضح": 5472,
    "▁ارقام": 5473,
    "▁تذکر": 5474,
    "▁شوهر": 5475,
    "▁لفظ": 5476,
    "▁مکتوب": 5477,
    "▁احراز": 5478,
    "▁طعام": 5479,
    "▁کیمیش": 5480,
    "▁همسایه": 5481,
    "▁سازندگی": 5482,
    "▁اولیانوف": 5483,
    "▁خستگی": 5484,
    "▁عبدالرحم": 5485,
    "▁قائل": 5486,
    "▁بگویید": 5487,
    "▁foot": 5488,
    "▁ابتکار": 5489,
    "▁میشویم": 5490,
    "▁ذخ": 5491,
    "▁انگشت": 5492,
    "▁رکود": 5493,
    "▁نباشه": 5494,
    "▁بگوید": 5495,
    "▁مختار": 5496,
    "▁قاعد": 5497,
    "حمیدزیچ": 5498,
    "▁برساند": 5499,
    "▁دردناک": 5500,
    "▁مزار": 5501,
    "▁ندهید": 5502,
    "▁AAAAAF": 5503,
    "▁کالبد": 5504,
    "▁دانک": 5505,
    "تحرک": 5506,
    "▁دیسک": 5507,
    "▁رومانیایی": 5508,
    "▁علاقهمند": 5509,
    "▁فرایند": 5510,
    "▁انبار": 5511,
    "▁خداوند": 5512,
    "▁باطل": 5513,
    "▁دیابت": 5514,
    "▁آرنا": 5515,
    "▁نیاورد": 5516,
    "▁ابدی": 5517,
    "▁مورخ": 5518,
    "▁میدم": 5519,
    "▁2010": 5520,
    "▁اسپورتینگ": 5521,
    "▁جورج": 5522,
    "▁فکت": 5523,
    "▁مدرن": 5524,
    "▁فلج": 5525,
    "لزم": 5526,
    "▁سانتی": 5527,
    "▁شاهکار": 5528,
    "▁فالک": 5529,
    "▁آزمایشگاه": 5530,
    "▁2005": 5531,
    "▁ماندهاند": 5532,
    "▁مدبر": 5533,
    "سیتی": 5534,
    "▁اسپی": 5535,
    "▁بیاتی": 5536,
    "سینوف": 5537,
    "▁اشکال": 5538,
    "▁حفر": 5539,
    "▁دریبل": 5540,
    "▁131": 5541,
    "▁ناچ": 5542,
    "دانگ": 5543,
    "▁تصویربردار": 5544,
    "تریک": 5545,
    "▁کیسه": 5546,
    "▁غار": 5547,
    "ملک": 5548,
    "▁مبادل": 5549,
    "▁امدادگر": 5550,
    "▁برمیگرد": 5551,
    "رمو": 5552,
    "▁مطهر": 5553,
    "▁نقد": 5554,
    "▁جهانگیر": 5555,
    "lu": 5556,
    "▁رایزنیها": 5557,
    "کایو": 5558,
    "وجود": 5559,
    "▁شاگرد": 5560,
    "▁چر": 5561,
    "لقان": 5562,
    "▁آرت": 5563,
    "▁ناگلزم": 5564,
    "▁زنجیره": 5565,
    "▁آرسن": 5566,
    "▁قایق": 5567,
    "▁پروفورم": 5568,
    "▁استرلینگ": 5569,
    "▁اسراییل": 5570,
    "▁افتضاح": 5571,
    "▁بازنشستگی": 5572,
    "▁تلگراف": 5573,
    "▁جمشیدی": 5574,
    "▁حافظ": 5575,
    "▁دوچرخه": 5576,
    "▁ردصلاحیت": 5577,
    "▁رشفورد": 5578,
    "▁عرصه": 5579,
    "▁محاصره": 5580,
    "▁محمدصادق": 5581,
    "▁مرسدس": 5582,
    "▁پشیمان": 5583,
    "▁یورنته": 5584,
    "▁یوزپلنگ": 5585,
    "▁تعادل": 5586,
    "▁جهنم": 5587,
    "▁مزایای": 5588,
    "▁اقساط": 5589,
    "▁داوود": 5590,
    "▁ضیائ": 5591,
    "▁نپذیرفت": 5592,
    "▁وحشتناک": 5593,
    "▁گونزال": 5594,
    "▁بختگان": 5595,
    "▁عمیق": 5596,
    "▁فهمید": 5597,
    "▁موسیالا": 5598,
    "mes": 5599,
    "▁میگذارد": 5600,
    "▁ابزار": 5601,
    "▁بیاحت": 5602,
    "ove": 5603,
    "▁کودتا": 5604,
    "▁عسگر": 5605,
    "▁مجیک": 5606,
    "▁عنبر": 5607,
    "▁خسرو": 5608,
    "ظلم": 5609,
    "▁صلیب": 5610,
    "▁تنبیه": 5611,
    "▁روانشناس": 5612,
    "▁پیاده": 5613,
    "▁خلیف": 5614,
    "▁جنتی": 5615,
    "▁شعر": 5616,
    "قطبی": 5617,
    "▁کشاند": 5618,
    "▁گروسی": 5619,
    "▁تانکر": 5620,
    "▁فلزی": 5621,
    "▁برگرداند": 5622,
    "▁بیاعت": 5623,
    "▁چاه": 5624,
    "▁شیمیدر": 5625,
    "▁وسیله": 5626,
    "▁میخورد": 5627,
    "▁ارشاد": 5628,
    "▁ادعیه": 5629,
    "▁نیشی": 5630,
    "▁متقابل": 5631,
    "up": 5632,
    "▁اشرف": 5633,
    "▁فاتی": 5634,
    "▁بوسنی": 5635,
    "▁منظم": 5636,
    "▁مسخره": 5637,
    "▁نجار": 5638,
    "▁ناچو": 5639,
    "▁خاوی": 5640,
    "▁تحسین": 5641,
    "▁نذر": 5642,
    "▁همینطور": 5643,
    "▁خرس": 5644,
    "▁الوند": 5645,
    "▁گواهی": 5646,
    "رطو": 5647,
    "▁جابجایی": 5648,
    "▁اکت": 5649,
    "پوشیده": 5650,
    "اریپو": 5651,
    "▁قربان": 5652,
    "▁صفوی": 5653,
    "▁معما": 5654,
    "فزون": 5655,
    "▁بازگردان": 5656,
    "▁زول": 5657,
    "▁پایدار": 5658,
    "▁ma": 5659,
    "وژی": 5660,
    "▁سئو": 5661,
    "حام": 5662,
    "▁کایک": 5663,
    "▁وکال": 5664,
    "لایه": 5665,
    "یاندا": 5666,
    "▁کاندید": 5667,
    "▁کشتیگیر": 5668,
    "پناه": 5669,
    "منتظر": 5670,
    "میلیارد": 5671,
    "پرداخت": 5672,
    "جنوبی": 5673,
    "news": 5674,
    "احمد": 5675,
    "تماس": 5676,
    "▁خیابانها": 5677,
    "▁ادعاها": 5678,
    "▁مبارز": 5679,
    "min": 5680,
    "دریکو": 5681,
    "▁مختل": 5682,
    "تلاشی": 5683,
    "الرحمن": 5684,
    "▁عاطف": 5685,
    "▁مطابق": 5686,
    "▁نابینایان": 5687,
    "▁کراسنودار": 5688,
    "▁آنچلوتی": 5689,
    "▁اضافی": 5690,
    "▁الخلیفی": 5691,
    "▁انتصاب": 5692,
    "▁بخونید": 5693,
    "▁برنابئو": 5694,
    "▁تابعیت": 5695,
    "▁تحریک": 5696,
    "▁ترنسفرمارکت": 5697,
    "▁تلوزیون": 5698,
    "▁دامپزشکی": 5699,
    "▁دیبروینه": 5700,
    "▁شارلرو": 5701,
    "▁طعنه": 5702,
    "▁فامالیسائو": 5703,
    "▁ماتادور": 5704,
    "▁موتاسیون": 5705,
    "▁ناگتس": 5706,
    "▁واتفورد": 5707,
    "▁فینیکس": 5708,
    "▁ناسیونال": 5709,
    "▁پارلمان": 5710,
    "▁پراکنده": 5711,
    "▁ایسلند": 5712,
    "▁تعجب": 5713,
    "▁عضلانی": 5714,
    "▁منهدم": 5715,
    "▁نابغه": 5716,
    "▁نباشیم": 5717,
    "▁عابدی": 5718,
    "▁نوبخت": 5719,
    "▁خشمگین": 5720,
    "▁مکالمه": 5721,
    "▁میآورند": 5722,
    "▁روسونری": 5723,
    "▁حرکات": 5724,
    "▁شاهرود": 5725,
    "▁مگسها": 5726,
    "▁جوزپ": 5727,
    "▁میایمی": 5728,
    "▁دندون": 5729,
    "▁داوید": 5730,
    "▁تبعیض": 5731,
    "تجهیز": 5732,
    "▁حیفا": 5733,
    "▁دینامو": 5734,
    "▁عبادی": 5735,
    "▁مریوان": 5736,
    "▁اراده": 5737,
    "▁آشوری": 5738,
    "▁نمیخواهیم": 5739,
    "▁بفرست": 5740,
    "▁توجیه": 5741,
    "▁سیبزمینی": 5742,
    "▁آلیسون": 5743,
    "▁صمد": 5744,
    "▁مقتد": 5745,
    "تفاهم": 5746,
    "▁نمیشد": 5747,
    "▁استیناف": 5748,
    "▁ناسا": 5749,
    "▁پذیرای": 5750,
    "▁لبران": 5751,
    "▁پنجاه": 5752,
    "▁تالار": 5753,
    "▁دلاور": 5754,
    "▁پرستار": 5755,
    "▁رضایتنامه": 5756,
    "▁برزای": 5757,
    "▁بهرهمند": 5758,
    "▁فخر": 5759,
    "▁محمودآباد": 5760,
    "▁موراتا": 5761,
    "▁جمعآوری": 5762,
    "▁صراحت": 5763,
    "▁هندیجان": 5764,
    "▁صفایی": 5765,
    "▁محبوبیت": 5766,
    "▁کیکر": 5767,
    "▁شیب": 5768,
    "100": 5769,
    "یسائو": 5770,
    "▁مقاله": 5771,
    "▁مگا": 5772,
    "▁عمو": 5773,
    "▁عیب": 5774,
    "▁بادران": 5775,
    "▁نمودار": 5776,
    "▁کرانه": 5777,
    "▁خرد": 5778,
    "▁القا": 5779,
    "▁خص": 5780,
    "▁معاب": 5781,
    "▁لج": 5782,
    "▁نشر": 5783,
    "▁راهنمای": 5784,
    "شعل": 5785,
    "وئر": 5786,
    "▁حیدر": 5787,
    "▁اشغال": 5788,
    "گارد": 5789,
    "اندیش": 5790,
    "▁چشمگیر": 5791,
    "افزای": 5792,
    "▁هنرمند": 5793,
    "خودرو": 5794,
    "صلاح": 5795,
    "رفسنجان": 5796,
    "دولتی": 5797,
    "▁میزنن": 5798,
    "▁آسا": 5799,
    "▁مصلح": 5800,
    "▁لط": 5801,
    "پترزبورگ": 5802,
    "▁آشپز": 5803,
    "▁آکسیوس": 5804,
    "▁اثبات": 5805,
    "▁اروگوئه": 5806,
    "▁اقیانوس": 5807,
    "▁الرحیم": 5808,
    "▁الشباب": 5809,
    "▁تغذیه": 5810,
    "▁تمسخر": 5811,
    "▁سعادت": 5812,
    "▁سیدالشهدا": 5813,
    "▁شیعیان": 5814,
    "▁ضدعفونی": 5815,
    "▁غافلگیر": 5816,
    "▁غیرحضوری": 5817,
    "▁فرآیند": 5818,
    "▁فلامینگو": 5819,
    "▁لیگاروپا": 5820,
    "▁مالباختگان": 5821,
    "▁نشاط": 5822,
    "tehran": 5823,
    "▁السوما": 5824,
    "▁اینسینیه": 5825,
    "▁سبحان": 5826,
    "▁فیتنس": 5827,
    "▁میلیتائو": 5828,
    "▁نیمفصل": 5829,
    "▁1442": 5830,
    "▁انبوه": 5831,
    "▁جواهر": 5832,
    "▁رفقا": 5833,
    "▁هکتار": 5834,
    "▁یوسیال": 5835,
    "▁اجساد": 5836,
    "▁خلیج": 5837,
    "▁سانتیمتر": 5838,
    "▁سوابق": 5839,
    "▁عذاب": 5840,
    "▁الرایه": 5841,
    "▁ممنون": 5842,
    "▁میدونن": 5843,
    "▁پاساژ": 5844,
    "▁نمیدانیم": 5845,
    "▁کواترو": 5846,
    "▁مرسول": 5847,
    "▁قشنگ": 5848,
    "▁شاعر": 5849,
    "▁آشوب": 5850,
    "▁توندلا": 5851,
    "▁العمل": 5852,
    "▁بلیط": 5853,
    "▁میدارد": 5854,
    "▁ارایه": 5855,
    "▁شرکا": 5856,
    "▁دندان": 5857,
    "▁قیاس": 5858,
    "▁علوی": 5859,
    "▁مکلف": 5860,
    "▁متولی": 5861,
    "▁وراتی": 5862,
    "▁منافی": 5863,
    "▁حمز": 5864,
    "▁میدیم": 5865,
    "▁پوشیدن": 5866,
    "▁ندهد": 5867,
    "▁قایقها": 5868,
    "▁پویش": 5869,
    "▁عالم": 5870,
    "▁قرعهکشی": 5871,
    "▁اردوگاه": 5872,
    "▁طنز": 5873,
    "▁تعرض": 5874,
    "▁افسر": 5875,
    "▁لاله": 5876,
    "▁نمیخور": 5877,
    "▁پیمانکار": 5878,
    "▁مشکی": 5879,
    "▁گریخت": 5880,
    "▁آبگرفت": 5881,
    "▁لگ": 5882,
    "▁مولا": 5883,
    "▁خمی": 5884,
    "egh": 5885,
    "پسند": 5886,
    "نبست": 5887,
    "مرث": 5888,
    "Ww": 5889,
    "27500": 5890,
    "فیلد": 5891,
    "▁جمهوریخواه": 5892,
    "▁bo": 5893,
    "950": 5894,
    "▁زخم": 5895,
    "▁مبنا": 5896,
    "▁بازرگان": 5897,
    "▁طراح": 5898,
    "▁ساحل": 5899,
    "▁تخصص": 5900,
    "گرفته": 5901,
    "▁رحم": 5902,
    "واهد": 5903,
    "اقتصاد": 5904,
    "کامنت": 5905,
    "خیال": 5906,
    "ناپذیر": 5907,
    "▁معاو": 5908,
    "▁زهر": 5909,
    "دریای": 5910,
    "▁افغان": 5911,
    "اورلینز": 5912,
    "▁تکتیرانداز": 5913,
    "▁دروازبان": 5914,
    "▁وثیقه": 5915,
    "▁پلگرینی": 5916,
    "▁گشایش": 5917,
    "Football": 5918,
    "▁fori": 5919,
    "▁آلرژی": 5920,
    "▁اختلاس": 5921,
    "▁اصطلاح": 5922,
    "▁اقلام": 5923,
    "▁امورخارجه": 5924,
    "▁تلفنهمراه": 5925,
    "▁جهیزیه": 5926,
    "▁رنجبری": 5927,
    "▁رومنیگه": 5928,
    "▁مالینوفسکی": 5929,
    "▁مباحث": 5930,
    "▁مجاهدان": 5931,
    "▁مرتکب": 5932,
    "▁منتقد": 5933,
    "▁نمازگزاران": 5934,
    "▁کولیبالی": 5935,
    "▁گهرسیرجان": 5936,
    "▁ییلماز": 5937,
    "▁ابعاد": 5938,
    "▁بیرحم": 5939,
    "▁زیزو": 5940,
    "▁مزرعه": 5941,
    "▁مستحق": 5942,
    "▁نوکمپ": 5943,
    "▁متفرق": 5944,
    "▁ناپدید": 5945,
    "▁کوزوو": 5946,
    "▁اسپرز": 5947,
    "▁سونگون": 5948,
    "▁مقطوع": 5949,
    "▁دمشق": 5950,
    "▁شاختار": 5951,
    "▁نخوردن": 5952,
    "▁بواتنگ": 5953,
    "▁تیاگو": 5954,
    "▁سکانس": 5955,
    "▁مکعب": 5956,
    "▁نمیدانست": 5957,
    "▁مجرمان": 5958,
    "▁نویسنده": 5959,
    "▁همیشگی": 5960,
    "▁بازگردد": 5961,
    "▁شارژ": 5962,
    "▁میبینیم": 5963,
    "▁ماندگار": 5964,
    "▁چاقو": 5965,
    "▁کذب": 5966,
    "▁بیگانگان": 5967,
    "▁تهیدست": 5968,
    "▁رجبی": 5969,
    "▁گومیس": 5970,
    "▁سارقان": 5971,
    "▁نمیدهیم": 5972,
    "▁پیسرز": 5973,
    "▁براهیم": 5974,
    "▁معطل": 5975,
    "▁طحان": 5976,
    "▁فائز": 5977,
    "▁شنیدن": 5978,
    "▁میبریم": 5979,
    "▁اوزیل": 5980,
    "▁کیمیا": 5981,
    "▁فغان": 5982,
    "▁بگذاریم": 5983,
    "▁خواج": 5984,
    "▁متواری": 5985,
    "▁اندیشه": 5986,
    "▁اینجوری": 5987,
    "▁سونامی": 5988,
    "▁قفس": 5989,
    "▁میگم": 5990,
    "▁سرزنش": 5991,
    "▁کارگردانی": 5992,
    "▁قشر": 5993,
    "▁راهحل": 5994,
    "▁حیث": 5995,
    "▁شعله": 5996,
    "▁برگرده": 5997,
    "▁برجسته": 5998,
    "▁علامت": 5999,
    "▁تریاک": 6000,
    "▁اظهارنظر": 6001,
    "▁تعمیر": 6002,
    "▁وستهام": 6003,
    "▁کرنر": 6004,
    "▁رادوشو": 6005,
    "▁رونق": 6006,
    "▁برسند": 6007,
    "▁شیوهنامه": 6008,
    "▁ایلنا": 6009,
    "▁حوثیها": 6010,
    "الاصل": 6011,
    "▁ذب": 6012,
    "▁اناری": 6013,
    "نظم": 6014,
    "سازگار": 6015,
    "ساط": 6016,
    "▁استخر": 6017,
    "منادی": 6018,
    "یبرید": 6019,
    "نسیل": 6020,
    "واسط": 6021,
    "▁تریپ": 6022,
    "▁جنس": 6023,
    "▁کلاهبردار": 6024,
    "▁وزنهبردار": 6025,
    "اذب": 6026,
    "نسک": 6027,
    "▁پیچید": 6028,
    "▁فرانس": 6029,
    "سابقه": 6030,
    "برابر": 6031,
    "واقع": 6032,
    "▁گیلا": 6033,
    "▁فاکتور": 6034,
    "Goal": 6035,
    "ency": 6036,
    "ouse": 6037,
    "رینگیتو": 6038,
    "▁twitte": 6039,
    "▁آینتراخت": 6040,
    "▁اجتناب": 6041,
    "▁اسپزیا": 6042,
    "▁المپیاکوس": 6043,
    "▁انفرادی": 6044,
    "▁اپراتور": 6045,
    "▁ایوانکوویچ": 6046,
    "▁بازنشسته": 6047,
    "▁بلینگهام": 6048,
    "▁بونجاح": 6049,
    "▁بیدردسر": 6050,
    "▁تجربیات": 6051,
    "▁تقصیر": 6052,
    "▁جالوروسی": 6053,
    "▁جستوجو": 6054,
    "▁خدابندهلو": 6055,
    "▁زهیوی": 6056,
    "▁سلتاویگو": 6057,
    "▁سورپرایز": 6058,
    "▁فرآوردههای": 6059,
    "▁لمپارد": 6060,
    "▁لوکزامبورگ": 6061,
    "▁مجتمع": 6062,
    "▁مضاعف": 6063,
    "▁ملاحظه": 6064,
    "▁مونتهکارلو": 6065,
    "▁نیفتاد": 6066,
    "▁هرناندز": 6067,
    "▁همسایگان": 6068,
    "▁ونزوئلا": 6069,
    "▁کاتالونیا": 6070,
    "▁کواچیچ": 6071,
    "▁گریزلیز": 6072,
    "▁آلونسو": 6073,
    "▁بدشانسی": 6074,
    "▁کپسول": 6075,
    "▁اتصال": 6076,
    "▁خوخی": 6077,
    "▁ضایع": 6078,
    "▁نخورده": 6079,
    "▁نقلوانتقال": 6080,
    "▁نیشکر": 6081,
    "▁کوواکس": 6082,
    "▁اطفا": 6083,
    "▁اوسیمن": 6084,
    "▁رفاقت": 6085,
    "▁تمهید": 6086,
    "▁فیلیمو": 6087,
    "▁تعامل": 6088,
    "▁تعرفه": 6089,
    "▁فاحش": 6090,
    "▁مراعات": 6091,
    "▁سنگربان": 6092,
    "▁فارغ": 6093,
    "▁نمیآید": 6094,
    "▁زاهدان": 6095,
    "▁عامری": 6096,
    "▁کنسرت": 6097,
    "▁اربیل": 6098,
    "▁مضمون": 6099,
    "▁معرفت": 6100,
    "▁سررسید": 6101,
    "▁آلاوز": 6102,
    "▁مجاور": 6103,
    "▁ناطق": 6104,
    "▁بگوییم": 6105,
    "▁اسباب": 6106,
    "▁میگیرم": 6107,
    "▁میکشد": 6108,
    "▁چوکا": 6109,
    "▁مستقل": 6110,
    "▁ژوتا": 6111,
    "▁سرکوب": 6112,
    "▁میبینم": 6113,
    "▁نمیشوند": 6114,
    "▁معارفه": 6115,
    "▁کارلتو": 6116,
    "▁نمیشوم": 6117,
    "▁مسافت": 6118,
    "▁پردیس": 6119,
    "▁بخورد": 6120,
    "؟": 6121
  }
}